{
  "version": "1.0",
  "truncation": null,
  "padding": null,
  "added_tokens": [
    {
      "id": 0,
      "content": "<unk>",
      "single_word": false,
      "lstrip": false,
      "rstrip": false,
      "normalized": false,
      "special": true
    },
    {
      "id": 1,
      "content": "<s>",
      "single_word": false,
      "lstrip": false,
      "rstrip": false,
      "normalized": false,
      "special": true
    },
    {
      "id": 2,
      "content": "</s>",
      "single_word": false,
      "lstrip": false,
      "rstrip": false,
      "normalized": false,
      "special": true
    }
  ],
  "normalizer": {
    "type": "NFKC"
  },
  "pre_tokenizer": {
    "type": "Sequence",
    "pretokenizers": [
      {
        "type": "Split",
        "pattern": {
          "String": " "
        },
        "behavior": "MergedWithNext",
        "invert": false
      },
      {
        "type": "Split",
        "pattern": {
          "Regex": "\\d|[⺀-⿟぀-㆏ㆠ-ㆿㇰ-ㇿ㐀-䶵一-鿿ꥠ-꥿가-퟿]"
        },
        "behavior": "Isolated",
        "invert": false
      },
      {
        "type": "Split",
        "pattern": {
          "Regex": " *(\\w+|[^\\w\\s]+)"
        },
        "behavior": "Isolated",
        "invert": false
      },
      {
        "type": "ByteLevel",
        "add_prefix_space": false,
        "trim_offsets": true,
        "use_regex": false
      }
    ]
  },
  "post_processor": null,
  "decoder": {
    "type": "ByteLevel",
    "add_prefix_space": true,
    "trim_offsets": true,
    "use_regex": true
  },
  "model": {
    "type": "BPE",
    "dropout": null,
    "unk_token": "<unk>",
    "continuing_subword_prefix": null,
    "end_of_word_suffix": null,
    "fuse_unk": true,
    "byte_fallback": false,
    "ignore_merges": false,
    "vocab": {
      "<unk>": 0,
      "<s>": 1,
      "</s>": 2,
      "!": 3,
      "\"": 4,
      "#": 5,
      "$": 6,
      "%": 7,
      "&": 8,
      "'": 9,
      "(": 10,
      ")": 11,
      "*": 12,
      "+": 13,
      ",": 14,
      "-": 15,
      ".": 16,
      "/": 17,
      "0": 18,
      "1": 19,
      "2": 20,
      "3": 21,
      "4": 22,
      "5": 23,
      "6": 24,
      "7": 25,
      "8": 26,
      "9": 27,
      ":": 28,
      ";": 29,
      "<": 30,
      "=": 31,
      ">": 32,
      "?": 33,
      "@": 34,
      "A": 35,
      "B": 36,
      "C": 37,
      "D": 38,
      "E": 39,
      "F": 40,
      "G": 41,
      "H": 42,
      "I": 43,
      "J": 44,
      "K": 45,
      "L": 46,
      "M": 47,
      "N": 48,
      "O": 49,
      "P": 50,
      "Q": 51,
      "R": 52,
      "S": 53,
      "T": 54,
      "U": 55,
      "V": 56,
      "W": 57,
      "X": 58,
      "Y": 59,
      "Z": 60,
      "[": 61,
      "\\": 62,
      "]": 63,
      "^": 64,
      "_": 65,
      "`": 66,
      "a": 67,
      "b": 68,
      "c": 69,
      "d": 70,
      "e": 71,
      "f": 72,
      "g": 73,
      "h": 74,
      "i": 75,
      "j": 76,
      "k": 77,
      "l": 78,
      "m": 79,
      "n": 80,
      "o": 81,
      "p": 82,
      "q": 83,
      "r": 84,
      "s": 85,
      "t": 86,
      "u": 87,
      "v": 88,
      "w": 89,
      "x": 90,
      "y": 91,
      "z": 92,
      "{": 93,
      "|": 94,
      "}": 95,
      "~": 96,
      "¡": 97,
      "¢": 98,
      "£": 99,
      "¤": 100,
      "¥": 101,
      "¦": 102,
      "§": 103,
      "¨": 104,
      "©": 105,
      "ª": 106,
      "«": 107,
      "¬": 108,
      "®": 109,
      "¯": 110,
      "°": 111,
      "±": 112,
      "²": 113,
      "³": 114,
      "´": 115,
      "µ": 116,
      "¶": 117,
      "·": 118,
      "¸": 119,
      "¹": 120,
      "º": 121,
      "»": 122,
      "¼": 123,
      "½": 124,
      "¾": 125,
      "¿": 126,
      "À": 127,
      "Á": 128,
      "Â": 129,
      "Ã": 130,
      "Ä": 131,
      "Å": 132,
      "Æ": 133,
      "Ç": 134,
      "È": 135,
      "É": 136,
      "Ê": 137,
      "Ë": 138,
      "Ì": 139,
      "Í": 140,
      "Î": 141,
      "Ï": 142,
      "Ð": 143,
      "Ñ": 144,
      "Ò": 145,
      "Ó": 146,
      "Ô": 147,
      "Õ": 148,
      "Ö": 149,
      "×": 150,
      "Ø": 151,
      "Ù": 152,
      "Ú": 153,
      "Û": 154,
      "Ü": 155,
      "Ý": 156,
      "Þ": 157,
      "ß": 158,
      "à": 159,
      "á": 160,
      "â": 161,
      "ã": 162,
      "ä": 163,
      "å": 164,
      "æ": 165,
      "ç": 166,
      "è": 167,
      "é": 168,
      "ê": 169,
      "ë": 170,
      "ì": 171,
      "í": 172,
      "î": 173,
      "ï": 174,
      "ð": 175,
      "ñ": 176,
      "ò": 177,
      "ó": 178,
      "ô": 179,
      "õ": 180,
      "ö": 181,
      "÷": 182,
      "ø": 183,
      "ù": 184,
      "ú": 185,
      "û": 186,
      "ü": 187,
      "ý": 188,
      "þ": 189,
      "ÿ": 190,
      "Ā": 191,
      "ā": 192,
      "Ă": 193,
      "ă": 194,
      "Ą": 195,
      "ą": 196,
      "Ć": 197,
      "ć": 198,
      "Ĉ": 199,
      "ĉ": 200,
      "Ċ": 201,
      "ċ": 202,
      "Č": 203,
      "č": 204,
      "Ď": 205,
      "ď": 206,
      "Đ": 207,
      "đ": 208,
      "Ē": 209,
      "ē": 210,
      "Ĕ": 211,
      "ĕ": 212,
      "Ė": 213,
      "ė": 214,
      "Ę": 215,
      "ę": 216,
      "Ě": 217,
      "ě": 218,
      "Ĝ": 219,
      "ĝ": 220,
      "Ğ": 221,
      "ğ": 222,
      "Ġ": 223,
      "ġ": 224,
      "Ģ": 225,
      "ģ": 226,
      "Ĥ": 227,
      "ĥ": 228,
      "Ħ": 229,
      "ħ": 230,
      "Ĩ": 231,
      "ĩ": 232,
      "Ī": 233,
      "ī": 234,
      "Ĭ": 235,
      "ĭ": 236,
      "Į": 237,
      "į": 238,
      "İ": 239,
      "ı": 240,
      "Ĳ": 241,
      "ĳ": 242,
      "Ĵ": 243,
      "ĵ": 244,
      "Ķ": 245,
      "ķ": 246,
      "ĸ": 247,
      "Ĺ": 248,
      "ĺ": 249,
      "Ļ": 250,
      "ļ": 251,
      "Ľ": 252,
      "ľ": 253,
      "Ŀ": 254,
      "ŀ": 255,
      "Ł": 256,
      "ł": 257,
      "Ń": 258,
      "Ġt": 259,
      "Ġa": 260,
      "in": 261,
      "he": 262,
      "re": 263,
      "on": 264,
      "er": 265,
      "Ġthe": 266,
      "Ġs": 267,
      "at": 268,
      "or": 269,
      "en": 270,
      "Ġw": 271,
      "Ġc": 272,
      "Ġo": 273,
      "it": 274,
      "an": 275,
      "es": 276,
      "is": 277,
      "Ġf": 278,
      "ing": 279,
      "al": 280,
      "Ġp": 281,
      "Ġan": 282,
      "Ġb": 283,
      "ed": 284,
      "ou": 285,
      "ar": 286,
      "Ġof": 287,
      "Ġin": 288,
      "Ġm": 289,
      "Ġto": 290,
      "Ġand": 291,
      "Ġd": 292,
      "ic": 293,
      "ion": 294,
      "le": 295,
      "as": 296,
      "om": 297,
      "Ġh": 298,
      "Ġth": 299,
      "ent": 300,
      "il": 301,
      "st": 302,
      "ro": 303,
      "el": 304,
      "Ġl": 305,
      "Ġre": 306,
      "ct": 307,
      "Ġn": 308,
      "et": 309,
      "Ġe": 310,
      "ĠS": 311,
      "ĠT": 312,
      "ĠI": 313,
      "ve": 314,
      "Ġg": 315,
      "id": 316,
      "ut": 317,
      "ĠC": 318,
      "ĠA": 319,
      "ot": 320,
      "ol": 321,
      "Ġis": 322,
      "am": 323,
      "ur": 324,
      "im": 325,
      "Ġfor": 326,
      "ig": 327,
      "ly": 328,
      "Ġon": 329,
      "ad": 330,
      "ac": 331,
      "Ġbe": 332,
      "ow": 333,
      "Ġy": 334,
      "ay": 335,
      "ation": 336,
      "us": 337,
      "ver": 338,
      "un": 339,
      "ĠM": 340,
      "Ġthat": 341,
      "Ġst": 342,
      "ith": 343,
      "ir": 344,
      "ce": 345,
      "ch": 346,
      "ĠP": 347,
      "Ġyou": 348,
      "ĠB": 349,
      "Ġwith": 350,
      "ul": 351,
      "Ġhe": 352,
      "se": 353,
      "Ġit": 354,
      "Ġ(": 355,
      "ter": 356,
      "Ġas": 357,
      "if": 358,
      "Ġal": 359,
      "ag": 360,
      "Ġwh": 361,
      "em": 362,
      "ĠD": 363,
      "ĠH": 364,
      "Ġcon": 365,
      "ill": 366,
      "ers": 367,
      "Ġpro": 368,
      "ĠW": 369,
      "od": 370,
      "ra": 371,
      "ĠR": 372,
      "ri": 373,
      "ĠF": 374,
      "Ġwe": 375,
      "est": 376,
      "ab": 377,
      "ist": 378,
      "her": 379,
      "ate": 380,
      "pp": 381,
      "and": 382,
      "um": 383,
      "ĠThe": 384,
      "th": 385,
      "ess": 386,
      "Ġare": 387,
      "Ġcom": 388,
      "Ġat": 389,
      "Ġv": 390,
      "ĠL": 391,
      "ke": 392,
      "Ġde": 393,
      "op": 394,
      "ore": 395,
      "qu": 396,
      "ld": 397,
      "ew": 398,
      "Ġwas": 399,
      "Ġor": 400,
      "ĠN": 401,
      "rom": 402,
      "oun": 403,
      "ity": 404,
      "ĠE": 405,
      "ht": 406,
      "ĠG": 407,
      "res": 408,
      "Ġex": 409,
      "os": 410,
      "Ġha": 411,
      "ect": 412,
      "oc": 413,
      "ort": 414,
      "ment": 415,
      "ant": 416,
      "Ġr": 417,
      "Ġ\"": 418,
      "Ġse": 419,
      "Ġby": 420,
      "ain": 421,
      "art": 422,
      "ies": 423,
      "iv": 424,
      "Ġsu": 425,
      "Ġfrom": 426,
      "ive": 427,
      "end": 428,
      "ĊĊ": 429,
      "Ġthis": 430,
      "ust": 431,
      "ĠJ": 432,
      "ĠO": 433,
      "Ġnot": 434,
      "..": 435,
      "Ġhave": 436,
      "Ġsh": 437,
      "ight": 438,
      "ud": 439,
      "Ġch": 440,
      "all": 441,
      "our": 442,
      "ard": 443,
      "red": 444,
      "Ġun": 445,
      "ren": 446,
      "ial": 447,
      "Ġle": 448,
      "Ġus": 449,
      "up": 450,
      "out": 451,
      "ear": 452,
      "ell": 453,
      "ould": 454,
      "ost": 455,
      "ap": 456,
      "Ġcan": 457,
      "ge": 458,
      "og": 459,
      "The": 460,
      "Ġwor": 461,
      "ome": 462,
      "ure": 463,
      "ine": 464,
      "Ġab": 465,
      "ack": 466,
      "ĠIn": 467,
      "ast": 468,
      "ĠU": 469,
      "Ġsp": 470,
      "ok": 471,
      "Ġpl": 472,
      "ak": 473,
      "Ġwill": 474,
      "âĢ": 475,
      "Ġj": 476,
      "ec": 477,
      "te": 478,
      "ide": 479,
      "ich": 480,
      "ff": 481,
      "pt": 482,
      "Ġhas": 483,
      "ions": 484,
      "pl": 485,
      "Ġall": 486,
      "Ġk": 487,
      "ber": 488,
      "age": 489,
      "Ġyour": 490,
      "oug": 491,
      "ice": 492,
      "Ġtr": 493,
      "per": 494,
      "ally": 495,
      "Ġwhe": 496,
      "ia": 497,
      "ip": 498,
      "Ġ$": 499,
      "der": 500,
      "ated": 501,
      "Ġdo": 502,
      "ame": 503,
      "ans": 504,
      "iz": 505,
      "ong": 506,
      "Ġcl": 507,
      "ther": 508,
      "Ġgo": 509,
      "Ġen": 510,
      "Ġad": 511,
      "ue": 512,
      "ub": 513,
      "ound": 514,
      "ass": 515,
      "Ġbut": 516,
      "ie": 517,
      "ĠK": 518,
      "Ġcomp": 519,
      "able": 520,
      "Ġme": 521,
      "ind": 522,
      "ous": 523,
      "act": 524,
      "Ġne": 525,
      "Ġhis": 526,
      "cc": 527,
      "orm": 528,
      "ary": 529,
      "ult": 530,
      "Ġar": 531,
      "Ġim": 532,
      "Ġtheir": 533,
      "Ġout": 534,
      "cl": 535,
      "ime": 536,
      "one": 537,
      "ĠSt": 538,
      "ook": 539,
      "Ġthey": 540,
      "ĠÐ": 541,
      "Ġup": 542,
      "Ġcont": 543,
      "ite": 544,
      "Ġmore": 545,
      "Ġres": 546,
      "ance": 547,
      "ace": 548,
      "ĠTh": 549,
      "ib": 550,
      "ry": 551,
      "Ġwhich": 552,
      "ep": 553,
      "av": 554,
      "ign": 555,
      "Ġone": 556,
      "ake": 557,
      "ations": 558,
      "ĠV": 559,
      "Ġso": 560,
      "ire": 561,
      "ical": 562,
      "so": 563,
      "very": 564,
      "ough": 565,
      "Ġint": 566,
      "Ġwho": 567,
      "ction": 568,
      "are": 569,
      "du": 570,
      "ase": 571,
      "Ġ\\": 572,
      "Ġman": 573,
      "ence": 574,
      "Ġapp": 575,
      "ail": 576,
      "ach": 577,
      "Ġabout": 578,
      "ĠCh": 579,
      "ents": 580,
      "ile": 581,
      "ks": 582,
      "Ġper": 583,
      "Ġqu": 584,
      "Ġsa": 585,
      "Ġli": 586,
      "ĠY": 587,
      "vel": 588,
      "ĠâĢ": 589,
      "ord": 590,
      "Ġ-": 591,
      "ount": 592,
      "Ġ=": 593,
      "form": 594,
      "Ġte": 595,
      "Ġdis": 596,
      "Ġour": 597,
      "ition": 598,
      "Ġnew": 599,
      "Ð¾": 600,
      "Ġmy": 601,
      "erv": 602,
      "int": 603,
      "ress": 604,
      "Ġyear": 605,
      "ll": 606,
      "port": 607,
      "Ġother": 608,
      "reat": 609,
      "ru": 610,
      "own": 611,
      "ens": 612,
      "Ġev": 613,
      "Ġwere": 614,
      "Ġpart": 615,
      "ose": 616,
      "ays": 617,
      "Ġoff": 618,
      "lic": 619,
      "ĠAn": 620,
      "Ġalso": 621,
      "ely": 622,
      "Ġhad": 623,
      "ang": 624,
      "ĉĉ": 625,
      "Ġher": 626,
      "ory": 627,
      "Ġag": 628,
      "Ġbeen": 629,
      "Ð°": 630,
      "ree": 631,
      "Ġwork": 632,
      "ob": 633,
      "ond": 634,
      "ors": 635,
      "ov": 636,
      "ark": 637,
      "Ġif": 638,
      "vers": 639,
      "ĠIt": 640,
      "ings": 641,
      "Ġsc": 642,
      "ove": 643,
      "Ġtime": 644,
      ").": 645,
      "ph": 646,
      "rent": 647,
      "mer": 648,
      "ild": 649,
      "ath": 650,
      "Ġits": 651,
      "Ġthere": 652,
      "Ġany": 653,
      "fe": 654,
      "Ġrec": 655,
      "ian": 656,
      "Ġwould": 657,
      "Ġover": 658,
      "xt": 659,
      "Ġpe": 660,
      "ish": 661,
      "Ġkn": 662,
      "Ġthem": 663,
      "Ġsome": 664,
      "Ġro": 665,
      "Ġwhen": 666,
      "irst": 667,
      "Ġget": 668,
      ".\"": 669,
      "Ġ'": 670,
      "ric": 671,
      "urn": 672,
      "Ġpre": 673,
      "Ġgr": 674,
      "Ġthan": 675,
      "ĠHe": 676,
      "Ðµ": 677,
      "Ġlike": 678,
      "use": 679,
      "gr": 680,
      ");": 681,
      "oll": 682,
      "Ġwhat": 683,
      "Ġbec": 684,
      "ne": 685,
      "wo": 686,
      "ople": 687,
      "fter": 688,
      "Ð¸": 689,
      "oy": 690,
      "Ġacc": 691,
      "pe": 692,
      "Ġinto": 693,
      "wn": 694,
      "),": 695,
      "In": 696,
      "ft": 697,
      "ick": 698,
      "Ġdes": 699,
      "anc": 700,
      "ink": 701,
      "ject": 702,
      "ons": 703,
      "rit": 704,
      "ates": 705,
      "Ġam": 706,
      "clud": 707,
      "Ġno": 708,
      "ade": 709,
      "--": 710,
      "Ġcomm": 711,
      "old": 712,
      "ont": 713,
      "Ġsaid": 714,
      "ater": 715,
      "Ġ&": 716,
      "ual": 717,
      "hed": 718,
      "Ġjust": 719,
      "we": 720,
      "tern": 721,
      "//": 722,
      "iew": 723,
      "ĠUn": 724,
      "ĠâĢĵ": 725,
      "Ġshe": 726,
      "igh": 727,
      "Ġpeople": 728,
      "ious": 729,
      "Ġfe": 730,
      "Ġfirst": 731,
      "Ġhow": 732,
      "ug": 733,
      "ood": 734,
      "lect": 735,
      "amp": 736,
      "ool": 737,
      "...": 738,
      "Ġind": 739,
      "com": 740,
      "Ġ{": 741,
      "iss": 742,
      "Ġneed": 743,
      "ĠWe": 744,
      "Ð½": 745,
      "Ġact": 746,
      "ational": 747,
      "aw": 748,
      "get": 749,
      "enc": 750,
      "ss": 751,
      "eth": 752,
      "Ġbet": 753,
      "rough": 754,
      "ning": 755,
      "ert": 756,
      "ck": 757,
      "Ġonly": 758,
      "Ġprov": 759,
      "Ġunder": 760,
      "hen": 761,
      "ef": 762,
      "Ġbl": 763,
      "ific": 764,
      "ÑĢ": 765,
      "ities": 766,
      "Ġcons": 767,
      "Ġtwo": 768,
      ",\"": 769,
      "ause": 770,
      "Ġadd": 771,
      "Ġem": 772,
      "Ġinclud": 773,
      "li": 774,
      "les": 775,
      "Ġmay": 776,
      "elf": 777,
      "ty": 778,
      "olog": 779,
      "ĠThis": 780,
      "Ġmost": 781,
      "ise": 782,
      "ÑĤ": 783,
      "Ġpr": 784,
      "eg": 785,
      "erm": 786,
      "pect": 787,
      "row": 788,
      "yst": 789,
      "day": 790,
      "Ġthrough": 791,
      "ating": 792,
      "ock": 793,
      "rib": 794,
      "ting": 795,
      "Ġknow": 796,
      "ata": 797,
      "Ġreg": 798,
      "Ġafter": 799,
      "oint": 800,
      "Ġco": 801,
      "Ġinv": 802,
      "Ġback": 803,
      "ring": 804,
      "ublic": 805,
      "Ñģ": 806,
      "Ġatt": 807,
      "Ġfl": 808,
      "Ġdif": 809,
      "ident": 810,
      "ĠCom": 811,
      "Ġimp": 812,
      "Th": 813,
      "Ġthese": 814,
      "Ġass": 815,
      "Ġstud": 816,
      "ps": 817,
      "=\"": 818,
      "Ġfun": 819,
      "pport": 820,
      "ics": 821,
      "oth": 822,
      "Ġcould": 823,
      "ener": 824,
      "Ġ<": 825,
      "Ġyears": 826,
      "als": 827,
      "Ġwhere": 828,
      "Ġsee": 829,
      "Ġwell": 830,
      "ife": 831,
      "ments": 832,
      "Ġrel": 833,
      "Ġph": 834,
      "ward": 835,
      "Ġbu": 836,
      "ased": 837,
      "Ð¾Ð": 838,
      "Ġprodu": 839,
      "Ġmake": 840,
      "Ġhel": 841,
      "ful": 842,
      "ys": 843,
      "Ġlook": 844,
      "Ġevery": 845,
      "io": 846,
      "ork": 847,
      "Ġserv": 848,
      "Ġinc": 849,
      "ange": 850,
      "Ġhim": 851,
      "ular": 852,
      "ily": 853,
      "ict": 854,
      "Ġcol": 855,
      "ĠĊ": 856,
      "oss": 857,
      "Ġset": 858,
      "ility": 859,
      "ystem": 860,
      "Ġret": 861,
      "uch": 862,
      "any": 863,
      "Ġwant": 864,
      "bs": 865,
      "Ġrem": 866,
      "Ã©": 867,
      "Ġuse": 868,
      "arch": 869,
      "Ġplay": 870,
      "Ġsec": 871,
      "ract": 872,
      "ible": 873,
      "ited": 874,
      "Ġthen": 875,
      "{\\": 876,
      "fore": 877,
      "uring": 878,
      "ative": 879,
      "ĠNew": 880,
      "hip": 881,
      "ull": 882,
      "Ġent": 883,
      "Ġfin": 884,
      "Ġsuch": 885,
      "ures": 886,
      "Ġmany": 887,
      "ied": 888,
      "Ġpol": 889,
      "ĠPro": 890,
      "ement": 891,
      "Ġac": 892,
      "erson": 893,
      "ower": 894,
      "velop": 895,
      "ex": 896,
      "ts": 897,
      "ient": 898,
      "Ġvery": 899,
      "Ġway": 900,
      "Ġnow": 901,
      "Ġtra": 902,
      "Ġ*": 903,
      "Ġeven": 904,
      "riv": 905,
      "Ġmod": 906,
      "Ġshould": 907,
      "Ġdid": 908,
      "ax": 909,
      "ĠRe": 910,
      "its": 911,
      "ĠEn": 912,
      "aking": 913,
      "iness": 914,
      "ivers": 915,
      "ices": 916,
      "Ġpres": 917,
      "ĠAr": 918,
      "ĠWh": 919,
      "Ġhelp": 920,
      "ience": 921,
      "itt": 922,
      "Ġke": 923,
      "alth": 924,
      "Ġexper": 925,
      "ues": 926,
      "Ġright": 927,
      "iel": 928,
      "Ġdec": 929,
      "Ġ}": 930,
      "land": 931,
      "ble": 932,
      "Ġinst": 933,
      "Ġeff": 934,
      "oup": 935,
      "Ġsm": 936,
      "gan": 937,
      "Ġtrans": 938,
      "ĠAnd": 939,
      "air": 940,
      "Ġshow": 941,
      "ix": 942,
      "hes": 943,
      "other": 944,
      "Ġend": 945,
      "Ġbecause": 946,
      "Ġagain": 947,
      "Ġown": 948,
      "chool": 949,
      "Ġspec": 950,
      "ution": 951,
      "ars": 952,
      "cept": 953,
      "Ġclass": 954,
      "ash": 955,
      "pr": 956,
      "az": 957,
      "Ġdiffe": 958,
      "Ġgood": 959,
      "con": 960,
      "Ġsub": 961,
      "Ġloc": 962,
      "Ġinter": 963,
      "Ġdef": 964,
      "ank": 965,
      "ced": 966,
      "Ġdown": 967,
      "ah": 968,
      "ollow": 969,
      "Ġstart": 970,
      "ins": 971,
      "irect": 972,
      "Ġlong": 973,
      "Ġbr": 974,
      "ĠDe": 975,
      "usiness": 976,
      "Ġbeing": 977,
      "Ġworld": 978,
      "Ġgu": 979,
      "ĠAl": 980,
      "Ġhigh": 981,
      "Ġsur": 982,
      "ale": 983,
      "formation": 984,
      "Ġrequ": 985,
      "ode": 986,
      "Ġnum": 987,
      "Ġcall": 988,
      "**": 989,
      "Ġmuch": 990,
      "the": 991,
      "Ġgreat": 992,
      "ven": 993,
      "cess": 994,
      "rest": 995,
      "ner": 996,
      "St": 997,
      "Ġ[": 998,
      "Ġdon": 999,
      "ween": 1000,
      "ince": 1001,
      "let": 1002,
      "Ġmade": 1003,
      "Ġins": 1004,
      "Ġthose": 1005,
      "Ġmon": 1006,
      "ek": 1007,
      "Ġfam": 1008,
      "Ġval": 1009,
      "uc": 1010,
      "</": 1011,
      "ĠYou": 1012,
      "Ġbel": 1013,
      "Ġthink": 1014,
      "Ġform": 1015,
      "ten": 1016,
      "view": 1017,
      "ize": 1018,
      "Ġdoes": 1019,
      "ason": 1020,
      "Ċĉĉ": 1021,
      "ĠSe": 1022,
      "Ġcount": 1023,
      "ines": 1024,
      "Ġart": 1025,
      "meric": 1026,
      "Ġdevelop": 1027,
      "Ġbefore": 1028,
      "Ġmem": 1029,
      "ives": 1030,
      "gram": 1031,
      "Ġsystem": 1032,
      "man": 1033,
      "Ġfind": 1034,
      "imes": 1035,
      "Ġread": 1036,
      "Ġchar": 1037,
      "led": 1038,
      "ĠSh": 1039,
      "Ġop": 1040,
      "atch": 1041,
      "ces": 1042,
      "Ġmin": 1043,
      "Ġsim": 1044,
      "Ġdet": 1045,
      "Ġbetween": 1046,
      "Ġexp": 1047,
      "line": 1048,
      "Ġhere": 1049,
      "Ġused": 1050,
      "ism": 1051,
      "uth": 1052,
      "ton": 1053,
      "chn": 1054,
      "Ġdisc": 1055,
      "Ġ.": 1056,
      "Ġcur": 1057,
      "Ġmed": 1058,
      "ather": 1059,
      "way": 1060,
      "Ġlead": 1061,
      "ave": 1062,
      "iet": 1063,
      "ouse": 1064,
      "Ġext": 1065,
      "ages": 1066,
      "Ġob": 1067,
      "ield": 1068,
      "vern": 1069,
      "Ġcar": 1070,
      "read": 1071,
      "ĠAs": 1072,
      "Ġfollow": 1073,
      "Ð»": 1074,
      "Ġser": 1075,
      "Ġperson": 1076,
      "Ġtake": 1077,
      "Ġpublic": 1078,
      "ever": 1079,
      "Ġed": 1080,
      "Ġsom": 1081,
      "alk": 1082,
      "Ġinte": 1083,
      "oh": 1084,
      "We": 1085,
      "Ġcre": 1086,
      "ets": 1087,
      "ually": 1088,
      "Ġlast": 1089,
      "Ġra": 1090,
      "Ġla": 1091,
      "Ġsign": 1092,
      "Ġear": 1093,
      "Ġday": 1094,
      "els": 1095,
      "Ġav": 1096,
      "Ġvar": 1097,
      "ists": 1098,
      "to": 1099,
      "ĠFor": 1100,
      "Ġeach": 1101,
      "ern": 1102,
      "Ġrep": 1103,
      "uss": 1104,
      "Ġwhile": 1105,
      "ology": 1106,
      "Ġlife": 1107,
      "Ġbest": 1108,
      "ger": 1109,
      "Ġcommun": 1110,
      "Ġsupport": 1111,
      "ĠAmeric": 1112,
      "Ġfil": 1113,
      "ute": 1114,
      "vent": 1115,
      "arm": 1116,
      "Ġche": 1117,
      "ĠBut": 1118,
      "Ġhand": 1119,
      "Ġcor": 1120,
      "Ġel": 1121,
      ".,": 1122,
      "ames": 1123,
      "Ġstr": 1124,
      "Ġvis": 1125,
      "Ġsame": 1126,
      "tt": 1127,
      "Ġcour": 1128,
      "ital": 1129,
      "ters": 1130,
      "An": 1131,
      "Ġdata": 1132,
      "Ġdifferent": 1133,
      "Ġ|": 1134,
      "Ġgener": 1135,
      "ĠTr": 1136,
      "ĠSc": 1137,
      "Ġboth": 1138,
      "Ġbusiness": 1139,
      "Ġpoint": 1140,
      "ought": 1141,
      "Ġinformation": 1142,
      "ized": 1143,
      "iversity": 1144,
      "yn": 1145,
      "Ġmark": 1146,
      "Ġreturn": 1147,
      "Ġresult": 1148,
      "ier": 1149,
      "ox": 1150,
      "ined": 1151,
      "ered": 1152,
      "ĠCl": 1153,
      "Ġi": 1154,
      "....": 1155,
      "ection": 1156,
      "Ġchild": 1157,
      "ĠLe": 1158,
      "ĠIf": 1159,
      "ruct": 1160,
      "It": 1161,
      "ann": 1162,
      "Ġreal": 1163,
      "ional": 1164,
      "ĠSp": 1165,
      "Wh": 1166,
      "Ġstill": 1167,
      "akes": 1168,
      "Ġfound": 1169,
      "Ġaround": 1170,
      "Ġ$\\": 1171,
      "ER": 1172,
      "Ġprovid": 1173,
      "Ġdist": 1174,
      "oad": 1175,
      "ross": 1176,
      "orn": 1177,
      "ants": 1178,
      "Ġgl": 1179,
      "sc": 1180,
      "Ġdel": 1181,
      "Ġinf": 1182,
      "ĠAd": 1183,
      "Ġhome": 1184,
      "ature": 1185,
      "sp": 1186,
      "Ġcent": 1187,
      "ret": 1188,
      "This": 1189,
      "gy": 1190,
      "oot": 1191,
      "Ðº": 1192,
      "Ġbook": 1193,
      "Ġteam": 1194,
      "Ġthree": 1195,
      "ness": 1196,
      "ww": 1197,
      "âĢĶ": 1198,
      "Ġcare": 1199,
      "Ġdesign": 1200,
      "Ġlar": 1201,
      "Ġty": 1202,
      "aj": 1203,
      "ved": 1204,
      "Ġappro": 1205,
      "Ġfr": 1206,
      "Ġsol": 1207,
      "ĠâĢĶ": 1208,
      "Ġimport": 1209,
      "ĠInd": 1210,
      "ral": 1211,
      "ired": 1212,
      "Ġsay": 1213,
      "Ġprogram": 1214,
      "Ġreally": 1215,
      "raph": 1216,
      "Ġpartic": 1217,
      "Ġdep": 1218,
      "Ġsl": 1219,
      "Ġduring": 1220,
      "Ġfact": 1221,
      "ĠZ": 1222,
      "Ġprocess": 1223,
      "Ñĥ": 1224,
      "self": 1225,
      "ural": 1226,
      "Ġrun": 1227,
      "ĠIs": 1228,
      "ym": 1229,
      "ared": 1230,
      "Ġref": 1231,
      "Ġreport": 1232,
      "ik": 1233,
      "ished": 1234,
      "Ġgoing": 1235,
      "://": 1236,
      "Ġconf": 1237,
      "Ġcap": 1238,
      "Ġusing": 1239,
      "Ġest": 1240,
      "bers": 1241,
      "app": 1242,
      "ĠFr": 1243,
      "ĠQ": 1244,
      "Ġcontin": 1245,
      "Ġresp": 1246,
      "atic": 1247,
      "pro": 1248,
      "ĠShe": 1249,
      "Ġsoc": 1250,
      "ody": 1251,
      "Ġpost": 1252,
      "inal": 1253,
      "ĠBl": 1254,
      "Ġconst": 1255,
      "ision": 1256,
      "ds": 1257,
      "math": 1258,
      "ying": 1259,
      "----": 1260,
      "Ġnumber": 1261,
      "cent": 1262,
      "ms": 1263,
      "ee": 1264,
      "ĠGr": 1265,
      "ving": 1266,
      "ĠThey": 1267,
      "()": 1268,
      "Ġcle": 1269,
      "Ġpat": 1270,
      "Ġcr": 1271,
      "Ġplace": 1272,
      "ator": 1273,
      "illion": 1274,
      "Ġlist": 1275,
      "\">": 1276,
      "\",": 1277,
      "ense": 1278,
      "br": 1279,
      "eng": 1280,
      "Ġincluding": 1281,
      "Ġiss": 1282,
      "rence": 1283,
      "Ġdirect": 1284,
      "Ġopen": 1285,
      "ways": 1286,
      "Ġtechn": 1287,
      "Ġ/": 1288,
      "arn": 1289,
      "Ġschool": 1290,
      "Ġprof": 1291,
      "und": 1292,
      "Ġadv": 1293,
      "ĠCon": 1294,
      "Ċĉ": 1295,
      "riend": 1296,
      "Ġwrit": 1297,
      "of": 1298,
      "ĠPh": 1299,
      "Ġpur": 1300,
      "att": 1301,
      "Ġpass": 1302,
      "ĠEx": 1303,
      "ining": 1304,
      "ina": 1305,
      "Ġposs": 1306,
      "ĠPl": 1307,
      "Ġproduct": 1308,
      "Ġhealth": 1309,
      "Ġexpl": 1310,
      "err": 1311,
      "ially": 1312,
      "Ġsecond": 1313,
      "ĠHow": 1314,
      "Ġmain": 1315,
      "lease": 1316,
      "Ġsk": 1317,
      "Ġhapp": 1318,
      "par": 1319,
      "less": 1320,
      "Ġtoo": 1321,
      "Ġpar": 1322,
      "ploy": 1323,
      "ĠOn": 1324,
      "lement": 1325,
      "rol": 1326,
      "Ġproject": 1327,
      "Ġtop": 1328,
      "ality": 1329,
      "iving": 1330,
      "ittle": 1331,
      "rem": 1332,
      "Ġbuild": 1333,
      "ering": 1334,
      "Ġorgan": 1335,
      "Ġfew": 1336,
      "rist": 1337,
      "Ġeffect": 1338,
      "Ġinterest": 1339,
      "vernment": 1340,
      "Ġmust": 1341,
      "Ġstate": 1342,
      "ases": 1343,
      "ĠComm": 1344,
      "Ġperform": 1345,
      "Ġmus": 1346,
      "reen": 1347,
      "ccess": 1348,
      "IN": 1349,
      "Ġmonth": 1350,
      "Ġrest": 1351,
      "Ġincre": 1352,
      "Ġsince": 1353,
      "que": 1354,
      "ustom": 1355,
      "mber": 1356,
      "text": 1357,
      "omen": 1358,
      "ote": 1359,
      "Ġlot": 1360,
      "ĠThere": 1361,
      "over": 1362,
      "ething": 1363,
      "gest": 1364,
      "Ġoper": 1365,
      "be": 1366,
      "Ġagainst": 1367,
      "ron": 1368,
      "stand": 1369,
      "Ġlaw": 1370,
      "ma": 1371,
      "ON": 1372,
      "ript": 1373,
      "ves": 1374,
      "Ġpos": 1375,
      "ency": 1376,
      "ission": 1377,
      "Ġstand": 1378,
      "ember": 1379,
      "thing": 1380,
      "Ġinvest": 1381,
      "Ġallow": 1382,
      "Ġmov": 1383,
      "Ġsmall": 1384,
      "ĠCol": 1385,
      "Ġname": 1386,
      "Ġprot": 1387,
      "Ġcase": 1388,
      "ĠUniversity": 1389,
      "son": 1390,
      "Ġtest": 1391,
      "Ġhead": 1392,
      "oard": 1393,
      "Ġanother": 1394,
      "Ġcompany": 1395,
      "Ð²": 1396,
      "pos": 1397,
      "Ġtri": 1398,
      "Ġcome": 1399,
      "min": 1400,
      "Ġdi": 1401,
      "Ġweek": 1402,
      "ailable": 1403,
      "âĢĵ": 1404,
      "Ġquest": 1405,
      "Ġhist": 1406,
      "esp": 1407,
      "ery": 1408,
      "Ġeas": 1409,
      "uro": 1410,
      "Ġplan": 1411,
      "Ġopt": 1412,
      "Ġfamily": 1413,
      "Ġrece": 1414,
      "Ġz": 1415,
      "ertain": 1416,
      "ĠMar": 1417,
      "outh": 1418,
      "Ġleg": 1419,
      "Ġwithout": 1420,
      "Ġequ": 1421,
      "ĠTe": 1422,
      "ior": 1423,
      "ref": 1424,
      "Ġide": 1425,
      "Ġthings": 1426,
      "Ġpower": 1427,
      "put": 1428,
      "Ġdem": 1429,
      "Ġgame": 1430,
      "ization": 1431,
      "Ġnext": 1432,
      "ately": 1433,
      "ott": 1434,
      "Ġrese": 1435,
      "here": 1436,
      "Ġet": 1437,
      "ead": 1438,
      "ĠUS": 1439,
      "ling": 1440,
      "Ġcurrent": 1441,
      "Ġhum": 1442,
      "ĠAll": 1443,
      "ically": 1444,
      "Ġsomething": 1445,
      "Ġput": 1446,
      "Ġann": 1447,
      "orth": 1448,
      "ample": 1449,
      "tain": 1450,
      "Ġlevel": 1451,
      "Ġ+": 1452,
      "lection": 1453,
      "med": 1454,
      "Ġproble": 1455,
      "Ġpop": 1456,
      "isc": 1457,
      "ump": 1458,
      "au": 1459,
      "uthor": 1460,
      "}\\": 1461,
      "Ġlet": 1462,
      "Ġfeel": 1463,
      "ĠÂ": 1464,
      "by": 1465,
      "ury": 1466,
      "ley": 1467,
      "Ġbro": 1468,
      "ĠBe": 1469,
      "oci": 1470,
      "Ġbig": 1471,
      "ohn": 1472,
      "ised": 1473,
      "Ġalways": 1474,
      "Ġlittle": 1475,
      "Ġimportant": 1476,
      "Ġnever": 1477,
      "Ġbetter": 1478,
      "ified": 1479,
      "ream": 1480,
      "Ġmet": 1481,
      "Ġsit": 1482,
      "Ġstat": 1483,
      "Ġturn": 1484,
      "sh": 1485,
      "Ġmight": 1486,
      "por": 1487,
      "ivid": 1488,
      "Ġmat": 1489,
      "iven": 1490,
      "lex": 1491,
      "Ġmanag": 1492,
      "Ġold": 1493,
      "Ġkeep": 1494,
      "ĠOr": 1495,
      "enn": 1496,
      "eb": 1497,
      "ider": 1498,
      "AT": 1499,
      "}$": 1500,
      "ium": 1501,
      "Ġavailable": 1502,
      "Ġmarket": 1503,
      "Ġfree": 1504,
      "Ġwon": 1505,
      "Ġpresent": 1506,
      "Ġ:": 1507,
      "Ch": 1508,
      "ES": 1509,
      "Ġlove": 1510,
      "iron": 1511,
      "ration": 1512,
      "ĠRes": 1513,
      "ĠSo": 1514,
      "^{": 1515,
      "Ġwithin": 1516,
      "ĠCent": 1517,
      "itions": 1518,
      "une": 1519,
      "ource": 1520,
      "__": 1521,
      "ane": 1522,
      "Ġorder": 1523,
      "Ġwater": 1524,
      "ethod": 1525,
      "Ġterm": 1526,
      "Ġgrow": 1527,
      "Ġseem": 1528,
      "til": 1529,
      "ability": 1530,
      "Ġgot": 1531,
      "right": 1532,
      "ived": 1533,
      "Ġbelie": 1534,
      "ording": 1535,
      "Ġproper": 1536,
      "conom": 1537,
      "Ġpay": 1538,
      "ains": 1539,
      "arent": 1540,
      "ently": 1541,
      "vious": 1542,
      "Ġsays": 1543,
      "oid": 1544,
      "ument": 1545,
      "Ġview": 1546,
      "ories": 1547,
      "ively": 1548,
      "Ġfour": 1549,
      "Ġexperience": 1550,
      "ged": 1551,
      "Ġfac": 1552,
      "de": 1553,
      "AR": 1554,
      "Ġbeh": 1555,
      "inc": 1556,
      "ĠMay": 1557,
      "Ġhard": 1558,
      "ients": 1559,
      "lish": 1560,
      "ternational": 1561,
      "Ġless": 1562,
      "ries": 1563,
      "Ġgroup": 1564,
      "ured": 1565,
      "ats": 1566,
      "gin": 1567,
      "Ġsing": 1568,
      "fr": 1569,
      "Ġfriend": 1570,
      "Ġmar": 1571,
      "Ġask": 1572,
      "Ġcost": 1573,
      "work": 1574,
      "Ġservice": 1575,
      "Ġaff": 1576,
      "Ġbre": 1577,
      "He": 1578,
      "oor": 1579,
      "acy": 1580,
      "icle": 1581,
      "Ġdr": 1582,
      "omm": 1583,
      "Ġeng": 1584,
      "Ġsupp": 1585,
      "ĠGo": 1586,
      "ĠEng": 1587,
      "Ġlocal": 1588,
      "Ġchange": 1589,
      "ĠTo": 1590,
      "ray": 1591,
      "Ġcustom": 1592,
      "Ġfull": 1593,
      "ention": 1594,
      "val": 1595,
      "ple": 1596,
      "Ġprom": 1597,
      "ope": 1598,
      "Ġelect": 1599,
      "ĠMan": 1600,
      "iety": 1601,
      "uck": 1602,
      "Ġchang": 1603,
      "aut": 1604,
      "Ñı": 1605,
      "Ġaccess": 1606,
      "oney": 1607,
      "Ġable": 1608,
      "Ġnon": 1609,
      "ably": 1610,
      "Ġwin": 1611,
      "ential": 1612,
      "ober": 1613,
      "ney": 1614,
      "for": 1615,
      "aim": 1616,
      "\\\\": 1617,
      "OR": 1618,
      "ination": 1619,
      "ng": 1620,
      "Ġfunction": 1621,
      "ird": 1622,
      "Ġworking": 1623,
      "Ġbas": 1624,
      "Ġdays": 1625,
      "ours": 1626,
      "Ġexpect": 1627,
      "ush": 1628,
      "Ġcho": 1629,
      "',": 1630,
      "Ð¼": 1631,
      "Ġchildren": 1632,
      "==": 1633,
      "Ġcountry": 1634,
      "As": 1635,
      "ene": 1636,
      "Ġvalue": 1637,
      "Ġprovide": 1638,
      "ajor": 1639,
      "ĠThat": 1640,
      "elt": 1641,
      "Ġgovernment": 1642,
      "Ġoffic": 1643,
      "Ġaddition": 1644,
      "ĠNo": 1645,
      "Ġarea": 1646,
      "ĠCo": 1647,
      "ĠChrist": 1648,
      "Ġsuccess": 1649,
      "urs": 1650,
      "ĠAmerican": 1651,
      "Ġactiv": 1652,
      "Ġcond": 1653,
      "ising": 1654,
      "Ð´": 1655,
      "AN": 1656,
      "Ġmeet": 1657,
      "If": 1658,
      "resent": 1659,
      "equ": 1660,
      "ĠCan": 1661,
      "Ġconc": 1662,
      "irc": 1663,
      "Ġpract": 1664,
      "aster": 1665,
      "Ġleft": 1666,
      "Ġgive": 1667,
      "orld": 1668,
      "Ġ_": 1669,
      "Ġspe": 1670,
      "Ġstudents": 1671,
      "ĠCar": 1672,
      "ĠJan": 1673,
      "ĠAt": 1674,
      "ocus": 1675,
      "Ġlight": 1676,
      "ĠAm": 1677,
      "Ġsure": 1678,
      "Ġstory": 1679,
      "ĠJohn": 1680,
      "iver": 1681,
      "ots": 1682,
      "Ġevent": 1683,
      "Ġapplic": 1684,
      "Ġcharact": 1685,
      "ung": 1686,
      "Ġindust": 1687,
      "Ġrecord": 1688,
      "Ġcommunity": 1689,
      "ĠX": 1690,
      "Ġemploy": 1691,
      "Ġservices": 1692,
      "viron": 1693,
      "Ġpast": 1694,
      "ister": 1695,
      "eter": 1696,
      "uly": 1697,
      "ateg": 1698,
      "iting": 1699,
      "Ġ#": 1700,
      "ĠUnited": 1701,
      "Ġline": 1702,
      "Ġconn": 1703,
      "ulation": 1704,
      "Ġunderstand": 1705,
      "Ġresearch": 1706,
      "Ñĸ": 1707,
      "Ġnear": 1708,
      "ards": 1709,
      "uture": 1710,
      "Ġmusic": 1711,
      "duct": 1712,
      "ending": 1713,
      "}}": 1714,
      "Ġmaking": 1715,
      "Ġdev": 1716,
      "ai": 1717,
      "set": 1718,
      "Ġmillion": 1719,
      "Ġ@": 1720,
      "rop": 1721,
      "Ġaway": 1722,
      "ted": 1723,
      "ID": 1724,
      "ware": 1725,
      "Ġ//": 1726,
      "tr": 1727,
      "Ġpriv": 1728,
      "aff": 1729,
      "Ġspecial": 1730,
      "Ġsocial": 1731,
      "org": 1732,
      "side": 1733,
      "Ġexc": 1734,
      "ĠMed": 1735,
      "Ġland": 1736,
      "ows": 1737,
      "Ġanal": 1738,
      "aug": 1739,
      "Ġtoday": 1740,
      "ended": 1741,
      "Ġaut": 1742,
      "Ġmove": 1743,
      "idd": 1744,
      "Ġalong": 1745,
      "Ġocc": 1746,
      "ole": 1747,
      "itive": 1748,
      "ĠPr": 1749,
      "Ġorig": 1750,
      "osp": 1751,
      "ians": 1752,
      "Ġuntil": 1753,
      "Ġbased": 1754,
      "ales": 1755,
      "yl": 1756,
      "Ġcalled": 1757,
      "Ġfollowing": 1758,
      "->": 1759,
      "Ġmult": 1760,
      "lished": 1761,
      "EN": 1762,
      "ĠRep": 1763,
      "Ġpolit": 1764,
      "Ġdesc": 1765,
      "ograph": 1766,
      "Ġwhy": 1767,
      "ference": 1768,
      "ready": 1769,
      "ĠWith": 1770,
      "ourn": 1771,
      "Ġfore": 1772,
      "ST": 1773,
      "rug": 1774,
      "Ġthought": 1775,
      "Ġve": 1776,
      "urity": 1777,
      "Ġimpro": 1778,
      "\".": 1779,
      "osed": 1780,
      "Ġjob": 1781,
      "Ġself": 1782,
      "go": 1783,
      "ances": 1784,
      "Pro": 1785,
      "ences": 1786,
      "abel": 1787,
      "Ġphot": 1788,
      "veral": 1789,
      "Ã¡": 1790,
      "ergy": 1791,
      "Ġcourse": 1792,
      "Ġmean": 1793,
      "ĠBr": 1794,
      "(\\": 1795,
      "Ġident": 1796,
      "ĠEuro": 1797,
      "load": 1798,
      "icy": 1799,
      "Ġlim": 1800,
      "rap": 1801,
      "ĠFl": 1802,
      "alf": 1803,
      "Ġtoget": 1804,
      "Ġtogether": 1805,
      "Ġlarge": 1806,
      "Ġacross": 1807,
      "ividual": 1808,
      "Ġben": 1809,
      "Ġmil": 1810,
      "raw": 1811,
      "pped": 1812,
      "ique": 1813,
      "Ġmembers": 1814,
      "itor": 1815,
      "Ġ,": 1816,
      "egin": 1817,
      "Ġmajor": 1818,
      "You": 1819,
      "amb": 1820,
      "Ġtimes": 1821,
      "Ġcreat": 1822,
      "yle": 1823,
      "Ġtem": 1824,
      "urther": 1825,
      "ike": 1826,
      "ison": 1827,
      "Ġwomen": 1828,
      "Ġoften": 1829,
      "aces": 1830,
      "wards": 1831,
      "Ġnet": 1832,
      "Ġfar": 1833,
      "Ġbecome": 1834,
      "Ġfield": 1835,
      "For": 1836,
      "Ġprofess": 1837,
      "Ġhaving": 1838,
      "vironment": 1839,
      "What": 1840,
      "ĠAss": 1841,
      "Ġdidn": 1842,
      "Ġgiven": 1843,
      "Ġpossible": 1844,
      "Ġkind": 1845,
      "Ġexample": 1846,
      "uff": 1847,
      "Ex": 1848,
      "Ġshort": 1849,
      "Ġdevelopment": 1850,
      "Ġalready": 1851,
      "Ġcontrol": 1852,
      "Ġpot": 1853,
      "not": 1854,
      "artment": 1855,
      "Ġthing": 1856,
      "aterial": 1857,
      "obal": 1858,
      "ĠPol": 1859,
      "Ġcamp": 1860,
      "Ġlik": 1861,
      "Ġtrad": 1862,
      "me": 1863,
      "Ġeduc": 1864,
      "AL": 1865,
      "Ġhuman": 1866,
      "ĠApp": 1867,
      "htt": 1868,
      "iod": 1869,
      "Ġsw": 1870,
      "Ġseason": 1871,
      "Ġcity": 1872,
      "ĠYork": 1873,
      "Ġvers": 1874,
      "Ġeconom": 1875,
      "roll": 1876,
      "Ġfocus": 1877,
      "ĠWhat": 1878,
      "Ġinclude": 1879,
      "Ġmen": 1880,
      "ights": 1881,
      "::": 1882,
      "ideo": 1883,
      "ither": 1884,
      "utes": 1885,
      "ored": 1886,
      "Ġseveral": 1887,
      "(\"": 1888,
      "Ġclear": 1889,
      "Ġparticular": 1890,
      "ills": 1891,
      "Ġmethod": 1892,
      "leg": 1893,
      "Ġfeat": 1894,
      "lev": 1895,
      "aps": 1896,
      "Ġwar": 1897,
      "Ġtreat": 1898,
      "Ġwr": 1899,
      "Ġauthor": 1900,
      "Ġair": 1901,
      "ĠÐ¿": 1902,
      "Ġfilm": 1903,
      "Ġtell": 1904,
      "Ġlearn": 1905,
      "ands": 1906,
      "Ġonline": 1907,
      "ĠWhen": 1908,
      "Ġleast": 1909,
      "Ã³": 1910,
      "Ġindividual": 1911,
      "Ġcertain": 1912,
      "rict": 1913,
      "ify": 1914,
      "ÑģÑĤ": 1915,
      "ected": 1916,
      "sel": 1917,
      "Ġfood": 1918,
      "fer": 1919,
      "Ġaccount": 1920,
      "aper": 1921,
      "isk": 1922,
      "aus": 1923,
      "Ġtype": 1924,
      "ask": 1925,
      "Ġmeans": 1926,
      "utions": 1927,
      "Ġcame": 1928,
      "orts": 1929,
      "eral": 1930,
      "Ġroom": 1931,
      "ails": 1932,
      "uary": 1933,
      "On": 1934,
      "Ġmoney": 1935,
      "joy": 1936,
      "Ġside": 1937,
      "Ġever": 1938,
      "Ġfuture": 1939,
      "ched": 1940,
      "Ġinvol": 1941,
      "pportun": 1942,
      "ĠInst": 1943,
      "begin": 1944,
      "ĠState": 1945,
      "idence": 1946,
      "Ġce": 1947,
      "Ġhouse": 1948,
      "Ġknown": 1949,
      "Ġcult": 1950,
      "back": 1951,
      "Ġwebs": 1952,
      "Ġant": 1953,
      "Ġlater": 1954,
      "imate": 1955,
      "che": 1956,
      "ĠGu": 1957,
      "aring": 1958,
      "Ġlooking": 1959,
      "ĠÃ": 1960,
      "Ġenough": 1961,
      "Ġtalk": 1962,
      "ffic": 1963,
      "Con": 1964,
      "ources": 1965,
      "AS": 1966,
      "ĠNational": 1967,
      "ones": 1968,
      "Ġothers": 1969,
      "Ġearly": 1970,
      "Ġdone": 1971,
      "af": 1972,
      "ued": 1973,
      "ids": 1974,
      "Ġhistory": 1975,
      "ĠEurope": 1976,
      "Ġren": 1977,
      "Ġhtt": 1978,
      "Ġworks": 1979,
      "ilar": 1980,
      "co": 1981,
      "ÑĮ": 1982,
      "most": 1983,
      "ĠMin": 1984,
      "Ġcreate": 1985,
      "Ġstudy": 1986,
      "Ġthough": 1987,
      "Ġsite": 1988,
      "aken": 1989,
      "ĠWorld": 1990,
      "ape": 1991,
      "oman": 1992,
      "Ġreview": 1993,
      "ball": 1994,
      "Ġlo": 1995,
      "ÃŃ": 1996,
      "IT": 1997,
      "Ġvol": 1998,
      "ĠEd": 1999,
      "Ġkey": 2000,
      "ament": 2001,
      "play": 2002,
      "ĠStates": 2003,
      "Ġsug": 2004,
      "ams": 2005,
      "Ġhold": 2006,
      ")$": 2007,
      "();": 2008,
      "Ġdri": 2009,
      "Ġtook": 2010,
      "rew": 2011,
      "Ġmom": 2012,
      "RE": 2013,
      "Ġopportun": 2014,
      "ĠIm": 2015,
      "Ġsum": 2016,
      "Ġfre": 2017,
      "Ġhig": 2018,
      "Ġlow": 2019,
      "ĠCount": 2020,
      "abor": 2021,
      "Ġmakes": 2022,
      "Ġstrong": 2023,
      "bl": 2024,
      "ĠPres": 2025,
      "Ġamong": 2026,
      "irl": 2027,
      "ners": 2028,
      "urch": 2029,
      "Ġtot": 2030,
      "sw": 2031,
      "Ġseries": 2032,
      "ĠCity": 2033,
      "Ġclaim": 2034,
      "reg": 2035,
      "How": 2036,
      "ada": 2037,
      "wh": 2038,
      "ained": 2039,
      "agn": 2040,
      "ides": 2041,
      "ding": 2042,
      "):": 2043,
      "Ġdiscuss": 2044,
      "iol": 2045,
      "Ġmodel": 2046,
      "ĠSte": 2047,
      "Ġspecific": 2048,
      "IC": 2049,
      "Ġnight": 2050,
      "ster": 2051,
      "lege": 2052,
      "Ġproblem": 2053,
      "rain": 2054,
      "Ġpub": 2055,
      "esc": 2056,
      "Ġbenef": 2057,
      "Ġx": 2058,
      "uf": 2059,
      "ĠOct": 2060,
      "Ġlive": 2061,
      "Ġneeds": 2062,
      "ĠApr": 2063,
      "ogn": 2064,
      "Ġcomb": 2065,
      "ĠSchool": 2066,
      "Ġpain": 2067,
      "ony": 2068,
      "Ġspace": 2069,
      "To": 2070,
      "ĠSec": 2071,
      "By": 2072,
      "ler": 2073,
      "Ġmeas": 2074,
      "Ġdeal": 2075,
      "Ġbody": 2076,
      "Ġdoing": 2077,
      "raft": 2078,
      "ĠÐ²": 2079,
      "ĠNe": 2080,
      "reet": 2081,
      "Ġredu": 2082,
      "Ġmaterial": 2083,
      "Ġonce": 2084,
      "Ġenc": 2085,
      "Ġresults": 2086,
      "ĠCal": 2087,
      "Ġenjoy": 2088,
      "Ġdoc": 2089,
      "book": 2090,
      "Ġbit": 2091,
      "Ġappear": 2092,
      "Ġelse": 2093,
      "There": 2094,
      "ama": 2095,
      "ĠGod": 2096,
      "}{": 2097,
      "Ġdoesn": 2098,
      "verage": 2099,
      "Ġreason": 2100,
      "Ġhappen": 2101,
      "Ġcheck": 2102,
      "ĠBro": 2103,
      "And": 2104,
      "Ġseen": 2105,
      "ĠComp": 2106,
      "pping": 2107,
      "ĠHowever": 2108,
      "ĠAust": 2109,
      "Ġperiod": 2110,
      "ĠDr": 2111,
      "Ġtrue": 2112,
      "Ġsuper": 2113,
      "Ġrequire": 2114,
      "ĠAf": 2115,
      "ĠMy": 2116,
      "vert": 2117,
      "ĠAb": 2118,
      "ĠAg": 2119,
      "my": 2120,
      "Ġinit": 2121,
      "Ġrepresent": 2122,
      "Ġtyp": 2123,
      "Ġpersonal": 2124,
      "arget": 2125,
      "Ġdue": 2126,
      "Ġfive": 2127,
      "lete": 2128,
      "Ġobject": 2129,
      "anies": 2130,
      "Ġnec": 2131,
      "Ġcompet": 2132,
      "ĠAct": 2133,
      "ze": 2134,
      "ĠAug": 2135,
      "},": 2136,
      "ĠGe": 2137,
      "ators": 2138,
      "Ġcrit": 2139,
      "ule": 2140,
      "oud": 2141,
      "ĠOne": 2142,
      "Al": 2143,
      "ilities": 2144,
      "ĠMarch": 2145,
      "Ġbo": 2146,
      "www": 2147,
      "Ġquestion": 2148,
      "ĠSouth": 2149,
      "Ġwent": 2150,
      "ift": 2151,
      "Ġjo": 2152,
      "Ġchall": 2153,
      "error": 2154,
      "Ġsingle": 2155,
      "Ġfinal": 2156,
      "ino": 2157,
      "ounds": 2158,
      "Ġrelations": 2159,
      "ault": 2160,
      "Ġcomplet": 2161,
      "ĠCont": 2162,
      "Ġport": 2163,
      "Ġcomes": 2164,
      "Ġmind": 2165,
      "lu": 2166,
      "fect": 2167,
      "Ġsignific": 2168,
      "Ñĭ": 2169,
      "Ġabove": 2170,
      "dd": 2171,
      "Ġwhether": 2172,
      "ĠMc": 2173,
      "But": 2174,
      "Ġoffer": 2175,
      "hing": 2176,
      "Ġcell": 2177,
      "cal": 2178,
      "ml": 2179,
      "olution": 2180,
      "ype": 2181,
      "angu": 2182,
      "ĠThese": 2183,
      "rodu": 2184,
      "Ġstarted": 2185,
      "AC": 2186,
      "Ġvisit": 2187,
      "Ġindustry": 2188,
      "Ġactually": 2189,
      "ume": 2190,
      "ches": 2191,
      "Ġmonths": 2192,
      "ĠEm": 2193,
      "str": 2194,
      "Ġyoung": 2195,
      "ĠPart": 2196,
      "hers": 2197,
      "ĠDep": 2198,
      "Ġpercent": 2199,
      "ival": 2200,
      "ÑĢÐ°": 2201,
      "illed": 2202,
      "Ġpri": 2203,
      "part": 2204,
      "Ġprob": 2205,
      "ibility": 2206,
      "Ġtold": 2207,
      "ĠPar": 2208,
      "Ġproducts": 2209,
      "now": 2210,
      "Ġfav": 2211,
      "Ġnews": 2212,
      "Ġpress": 2213,
      "fig": 2214,
      "Ġmedia": 2215,
      "Ġstep": 2216,
      "ED": 2217,
      "ĠJanuary": 2218,
      "onse": 2219,
      "time": 2220,
      "itle": 2221,
      "Ġbring": 2222,
      "Ġquality": 2223,
      "iter": 2224,
      "ĠMe": 2225,
      "IS": 2226,
      "Ġyet": 2227,
      "Ġgetting": 2228,
      "ression": 2229,
      "Ġtax": 2230,
      "Ġenergy": 2231,
      "Ġwebsite": 2232,
      "ification": 2233,
      "ĠWill": 2234,
      "ĠHar": 2235,
      "Ġfurther": 2236,
      "frac": 2237,
      "a_": 2238,
      "uation": 2239,
      "ilt": 2240,
      "cer": 2241,
      "urg": 2242,
      "Ġaddress": 2243,
      "Ñĩ": 2244,
      "Ar": 2245,
      "hel": 2246,
      "ĠSept": 2247,
      "Ġtry": 2248,
      "Ġcharacter": 2249,
      "ĠServ": 2250,
      "Ġey": 2251,
      "Ġmot": 2252,
      "though": 2253,
      "irm": 2254,
      "Un": 2255,
      "empt": 2256,
      "ili": 2257,
      "ancial": 2258,
      "Ġexist": 2259,
      "fort": 2260,
      "face": 2261,
      "ĠApril": 2262,
      "Ġrespons": 2263,
      "ĠJune": 2264,
      "mit": 2265,
      "Ġenvironment": 2266,
      "anks": 2267,
      "head": 2268,
      "ried": 2269,
      "--------": 2270,
      "ĠDo": 2271,
      "Ġbegin": 2272,
      "Ġwind": 2273,
      "itted": 2274,
      "Ġdeb": 2275,
      "Ġ...": 2276,
      "?\"": 2277,
      "room": 2278,
      "oon": 2279,
      "ĠNorth": 2280,
      "Ġbuilding": 2281,
      "Ġprivate": 2282,
      "Ġrespect": 2283,
      "cember": 2284,
      "Ġcal": 2285,
      "ief": 2286,
      "Ð½Ð¸": 2287,
      "Ġpage": 2288,
      "Ġshare": 2289,
      "unch": 2290,
      "Ġcontent": 2291,
      "Ġconsider": 2292,
      "Ġstruct": 2293,
      "ournal": 2294,
      "Ġdiff": 2295,
      "Ġmess": 2296,
      "ĠWar": 2297,
      "ibr": 2298,
      "ovember": 2299,
      "Ġrole": 2300,
      "Ġder": 2301,
      "ĠGl": 2302,
      "ples": 2303,
      "asing": 2304,
      "Ġwa": 2305,
      "ception": 2306,
      "irt": 2307,
      "atural": 2308,
      "oph": 2309,
      "Ġcompanies": 2310,
      "Ġphys": 2311,
      "Ġens": 2312,
      "ĠFeb": 2313,
      "Ġtext": 2314,
      "Ġissues": 2315,
      "ĠJuly": 2316,
      "minist": 2317,
      "Ġrange": 2318,
      "ges": 2319,
      "ruction": 2320,
      "ari": 2321,
      "Ġdeath": 2322,
      "Ġcommon": 2323,
      "ĠHis": 2324,
      "Ġvideo": 2325,
      "Ġdeterm": 2326,
      "Ġbeaut": 2327,
      "Ġesp": 2328,
      "epend": 2329,
      "Ġquick": 2330,
      "Ġsuggest": 2331,
      "Ġbreak": 2332,
      "ana": 2333,
      "Re": 2334,
      "ĠBar": 2335,
      "ops": 2336,
      "En": 2337,
      "ĠMr": 2338,
      "Ġprevious": 2339,
      "Ġannoun": 2340,
      "Ġface": 2341,
      "Ġtechnology": 2342,
      "ecially": 2343,
      "Ġbar": 2344,
      "Ġlat": 2345,
      "chie": 2346,
      "clus": 2347,
      "Ġheart": 2348,
      "Ġsent": 2349,
      "Ġaction": 2350,
      "rm": 2351,
      "Ġaud": 2352,
      "icro": 2353,
      "Ġbelow": 2354,
      "Ġobs": 2355,
      "('": 2356,
      "ĠCor": 2357,
      "Ġsignificant": 2358,
      "Ġgeneral": 2359,
      "Ġwhole": 2360,
      "****": 2361,
      "ises": 2362,
      "Ġhours": 2363,
      "ĠEl": 2364,
      "earch": 2365,
      "selves": 2366,
      "........": 2367,
      "Ġhalf": 2368,
      "istic": 2369,
      "Ġassoci": 2370,
      "ules": 2371,
      "ĠÑģ": 2372,
      "ĠQu": 2373,
      "Ġmor": 2374,
      "Ġcontact": 2375,
      "Ġcut": 2376,
      "Ġste": 2377,
      "Ġeasy": 2378,
      "umb": 2379,
      "Ġposition": 2380,
      "ĠReg": 2381,
      "Ġtw": 2382,
      "ĠCO": 2383,
      "ĠArt": 2384,
      "ĠPresident": 2385,
      "Ġago": 2386,
      "Ġsimilar": 2387,
      "ends": 2388,
      "Ġage": 2389,
      "elling": 2390,
      "EC": 2391,
      "era": 2392,
      "aid": 2393,
      "Ġparent": 2394,
      "Ġarg": 2395,
      "ysis": 2396,
      "sec": 2397,
      "Ġamount": 2398,
      "Ġsoft": 2399,
      "aur": 2400,
      "Ð¾Ð²": 2401,
      "ocr": 2402,
      "Ġparticip": 2403,
      "Ġeither": 2404,
      "lin": 2405,
      "Ġdescrib": 2406,
      "Ġbelieve": 2407,
      "Ġsong": 2408,
      "Ġimpact": 2409,
      "ĠNot": 2410,
      "Ġfriends": 2411,
      "opy": 2412,
      "Ċĉĉĉĉ": 2413,
      "iday": 2414,
      "ging": 2415,
      "Ġestab": 2416,
      "Ġtaken": 2417,
      "uk": 2418,
      "ĠPe": 2419,
      "When": 2420,
      "ĠStud": 2421,
      "ĠBy": 2422,
      "year": 2423,
      "Ġrad": 2424,
      "Ġperformance": 2425,
      "ades": 2426,
      "Ġalmost": 2427,
      "Ġnational": 2428,
      "apt": 2429,
      "ĠBrit": 2430,
      "ledge": 2431,
      "Ġdou": 2432,
      "ication": 2433,
      "Ġrepl": 2434,
      "Ġtrack": 2435,
      "Ġhy": 2436,
      "aul": 2437,
      "fl": 2438,
      "ounc": 2439,
      "Ġfall": 2440,
      "add": 2441,
      "ham": 2442,
      "Ġcompl": 2443,
      "Ġgen": 2444,
      "ĠNews": 2445,
      "ĠSeptember": 2446,
      "oe": 2447,
      "iff": 2448,
      "ĠSoc": 2449,
      "ĠDecember": 2450,
      "ĠAmerica": 2451,
      "ĠMus": 2452,
      "Ġfail": 2453,
      "Ġcoll": 2454,
      "ĠAfter": 2455,
      "ental": 2456,
      "ips": 2457,
      "AM": 2458,
      "ĠPer": 2459,
      "Ġtaking": 2460,
      "alt": 2461,
      "Ġsix": 2462,
      "Ġeverything": 2463,
      "Ġthird": 2464,
      "ĠDav": 2465,
      "ĠOctober": 2466,
      "cle": 2467,
      "icult": 2468,
      "Ġvarious": 2469,
      "gress": 2470,
      "ological": 2471,
      "))": 2472,
      "Ã¤": 2473,
      "Ġlog": 2474,
      "Ġ</": 2475,
      "aged": 2476,
      "Ġwalk": 2477,
      "Sh": 2478,
      "rel": 2479,
      "Ġidea": 2480,
      "Ġgames": 2481,
      "Ġund": 2482,
      "Ġclose": 2483,
      "bb": 2484,
      "div": 2485,
      "Ġdom": 2486,
      "Ġhot": 2487,
      "Ġhost": 2488,
      "ĠNovember": 2489,
      "ĠAugust": 2490,
      "key": 2491,
      "Ġmiss": 2492,
      "Ġaccording": 2493,
      "Ġsubject": 2494,
      "ĠHealth": 2495,
      "Ġentire": 2496,
      "Ð·": 2497,
      "Ġrequest": 2498,
      "Ġcontrib": 2499,
      "atur": 2500,
      "Ġfront": 2501,
      "col": 2502,
      "Ġissue": 2503,
      "Ġpo": 2504,
      "action": 2505,
      "ĠSun": 2506,
      "Ġpack": 2507,
      "ogle": 2508,
      "Ġfoot": 2509,
      "ĠWest": 2510,
      "Ġselect": 2511,
      "itch": 2512,
      "!!": 2513,
      "Ġhom": 2514,
      "hib": 2515,
      "cont": 2516,
      "Ġnecess": 2517,
      "ems": 2518,
      "na": 2519,
      "Ġintern": 2520,
      "ires": 2521,
      "ij": 2522,
      "ided": 2523,
      "Ġshows": 2524,
      "Ġrequired": 2525,
      "ĠChe": 2526,
      "ees": 2527,
      "ĠHer": 2528,
      "Ġhowever": 2529,
      "Ġupd": 2530,
      "aced": 2531,
      "Ġevents": 2532,
      "Ġtotal": 2533,
      "Ð¹": 2534,
      "Ġ--": 2535,
      "ĠAfric": 2536,
      "Ġblack": 2537,
      "iction": 2538,
      "ĠCounty": 2539,
      "ully": 2540,
      "Ġareas": 2541,
      "cy": 2542,
      "Ġabs": 2543,
      "Ġrather": 2544,
      "ply": 2545,
      "label": 2546,
      "Ġess": 2547,
      "Ġdig": 2548,
      "Ġtrying": 2549,
      "Ph": 2550,
      "Ġsize": 2551,
      "iple": 2552,
      "ĠSm": 2553,
      "ites": 2554,
      "ille": 2555,
      "Ġtool": 2556,
      "atory": 2557,
      "ĠHouse": 2558,
      "Ġanything": 2559,
      "ĠCour": 2560,
      "Ġlikely": 2561,
      "ux": 2562,
      "Ġperfect": 2563,
      "off": 2564,
      "Ġcirc": 2565,
      "ĠSch": 2566,
      "ables": 2567,
      "bar": 2568,
      "Ġpoints": 2569,
      "Ġheld": 2570,
      "eq": 2571,
      "amed": 2572,
      "Ġoriginal": 2573,
      "umn": 2574,
      "Ġfile": 2575,
      "Ġsomeone": 2576,
      "Ġrelationship": 2577,
      "Ġcomput": 2578,
      "ecut": 2579,
      "Ġmanagement": 2580,
      "cite": 2581,
      "Ġtravel": 2582,
      "Ġpolitical": 2583,
      "ruary": 2584,
      "Ð¿": 2585,
      "adem": 2586,
      "ength": 2587,
      "ris": 2588,
      "ĠMark": 2589,
      "Ġimprove": 2590,
      "Com": 2591,
      "ĠRuss": 2592,
      "Ġstay": 2593,
      "aving": 2594,
      "pper": 2595,
      "Ġprovided": 2596,
      "Ġwatch": 2597,
      "Cl": 2598,
      "ondon": 2599,
      "Ġfeatures": 2600,
      "Ġproperty": 2601,
      "Ġmass": 2602,
      "Ġep": 2603,
      "Ġmember": 2604,
      "Ġachie": 2605,
      "ender": 2606,
      "Ġ>": 2607,
      "Ġespecially": 2608,
      "Ġrecogn": 2609,
      "Ġcollect": 2610,
      "Ġrisk": 2611,
      "Ġformer": 2612,
      "iam": 2613,
      "Ġtraining": 2614,
      "aching": 2615,
      "ĠPark": 2616,
      "ude": 2617,
      "HE": 2618,
      "ores": 2619,
      "Ġclos": 2620,
      "leased": 2621,
      "Ġtable": 2622,
      "Ġcontinue": 2623,
      "ĠAustral": 2624,
      "cast": 2625,
      "ensive": 2626,
      "ci": 2627,
      "ĠCenter": 2628,
      "Ġcred": 2629,
      "Ġprim": 2630,
      "Ġadded": 2631,
      "ĠRec": 2632,
      "Ġred": 2633,
      "itional": 2634,
      "Ġtarget": 2635,
      "Ġquite": 2636,
      "anguage": 2637,
      "Ġattack": 2638,
      "ĊĊĊ": 2639,
      "aging": 2640,
      "oved": 2641,
      "bor": 2642,
      "Ġbehind": 2643,
      "Ġeducation": 2644,
      "Ġreceived": 2645,
      "oups": 2646,
      "Ġoffice": 2647,
      "Ġliving": 2648,
      "ĠChar": 2649,
      "Ġrecent": 2650,
      "Ġviol": 2651,
      "Ġofficial": 2652,
      "come": 2653,
      "ouncil": 2654,
      "rect": 2655,
      "Ġdifficult": 2656,
      "ext": 2657,
      "ĠOur": 2658,
      "Ġsat": 2659,
      "Ġprice": 2660,
      "Ġneg": 2661,
      "Ġminutes": 2662,
      "Ġasked": 2663,
      "Ġchanges": 2664,
      "Ġcoming": 2665,
      "Ġagre": 2666,
      "Ġleaders": 2667,
      "Ġcode": 2668,
      "Ġopp": 2669,
      "Ġwanted": 2670,
      "Ġexam": 2671,
      "ET": 2672,
      "Ċĉĉĉ": 2673,
      "US": 2674,
      "Ġstaff": 2675,
      "ety": 2676,
      "ey": 2677,
      "Ġcases": 2678,
      "itte": 2679,
      "ington": 2680,
      "Ġglobal": 2681,
      "Ġden": 2682,
      "hern": 2683,
      "Ġcaus": 2684,
      "Ġsystems": 2685,
      "Ġsecurity": 2686,
      "Tr": 2687,
      "Ġneeded": 2688,
      "ĠSu": 2689,
      "Ġshall": 2690,
      "Ġversion": 2691,
      "Ġrights": 2692,
      "Ġinternational": 2693,
      "Ġdest": 2694,
      "span": 2695,
      "Ġforward": 2696,
      "Ġcourt": 2697,
      "left": 2698,
      "iddle": 2699,
      "Ġaccept": 2700,
      "ĠUK": 2701,
      "this": 2702,
      "Ġbi": 2703,
      "Ġpotential": 2704,
      "So": 2705,
      "Ġmatter": 2706,
      "Ñħ": 2707,
      "Ġhon": 2708,
      "ague": 2709,
      "Ġbad": 2710,
      "ser": 2711,
      "Ġsym": 2712,
      "ett": 2713,
      "Ġprovides": 2714,
      "AP": 2715,
      "ĠÐ½": 2716,
      "Ġill": 2717,
      "RO": 2718,
      "medi": 2719,
      "Ġrecomm": 2720,
      "Ġbuy": 2721,
      "Name": 2722,
      "ald": 2723,
      "Ġcreated": 2724,
      "ession": 2725,
      "Ġpolicy": 2726,
      "ĠJust": 2727,
      "based": 2728,
      "With": 2729,
      "Ġarticle": 2730,
      "Ġpatients": 2731,
      "Ġquestions": 2732,
      "Ġconcern": 2733,
      "ground": 2734,
      "Ġfig": 2735,
      "aining": 2736,
      "Ġregard": 2737,
      "ev": 2738,
      "Ġupon": 2739,
      "idge": 2740,
      "ceed": 2741,
      "name": 2742,
      "icles": 2743,
      "Ġnetwork": 2744,
      "uge": 2745,
      "inary": 2746,
      "resh": 2747,
      "Ġwords": 2748,
      "Ġexperi": 2749,
      "ederal": 2750,
      "ension": 2751,
      "Ġimm": 2752,
      "Ġterms": 2753,
      "$.": 2754,
      "Ġpurch": 2755,
      "aign": 2756,
      "itary": 2757,
      "lebr": 2758,
      "ica": 2759,
      "roid": 2760,
      "ĠInternational": 2761,
      "ĠLaw": 2762,
      "cial": 2763,
      "Ġincrease": 2764,
      "icated": 2765,
      "Ġansw": 2766,
      "Ġpers": 2767,
      "Ġfire": 2768,
      "Ġsearch": 2769,
      "Ġfinancial": 2770,
      "bum": 2771,
      "Ġdate": 2772,
      "Ġdeg": 2773,
      "ĠGerm": 2774,
      "Ġbecame": 2775,
      "Ġanim": 2776,
      "Ġmoment": 2777,
      "Ġinvestig": 2778,
      "$,": 2779,
      "Ġpath": 2780,
      "Ġpopular": 2781,
      "Ġrate": 2782,
      "Ġwriting": 2783,
      "Ġuser": 2784,
      "where": 2785,
      "ĠFin": 2786,
      "Ġcountries": 2787,
      "Ġnothing": 2788,
      "Ġinn": 2789,
      "Ġparty": 2790,
      "Ġproduction": 2791,
      "sy": 2792,
      "ĠFebruary": 2793,
      "Ġhigher": 2794,
      "Ġeveryone": 2795,
      "Ġwhite": 2796,
      "atform": 2797,
      "Ġcannot": 2798,
      "Ġpret": 2799,
      "overed": 2800,
      "ĠOff": 2801,
      "Ġdefin": 2802,
      "Ġpict": 2803,
      "Ġlink": 2804,
      "Ġinstall": 2805,
      "urb": 2806,
      "Ġver": 2807,
      "Ġways": 2808,
      "New": 2809,
      "Ġnorm": 2810,
      "ivity": 2811,
      "Ġprobably": 2812,
      "mb": 2813,
      "uel": 2814,
      "Ġcomplete": 2815,
      "Ġpropos": 2816,
      "ĠSw": 2817,
      "Ġincludes": 2818,
      "Ġroad": 2819,
      "Ġboard": 2820,
      "Ġassist": 2821,
      "Ġseems": 2822,
      "ĠMore": 2823,
      "arning": 2824,
      "iful": 2825,
      "Ġcontract": 2826,
      "Ġu": 2827,
      "ĠDon": 2828,
      "anced": 2829,
      "ĠĊĊ": 2830,
      "Ġsimple": 2831,
      "##": 2832,
      "ĠMon": 2833,
      "Ġsoon": 2834,
      "ĠLondon": 2835,
      "bf": 2836,
      "Ġpick": 2837,
      "Ġoutside": 2838,
      "agement": 2839,
      "alse": 2840,
      "fully": 2841,
      "Ġtakes": 2842,
      "Ã¶": 2843,
      "ÐµÑĢ": 2844,
      "Ã¼": 2845,
      "All": 2846,
      "ĠSer": 2847,
      "import": 2848,
      "LL": 2849,
      "Ġdam": 2850,
      "Ġengine": 2851,
      "Ġoffers": 2852,
      "Ġvari": 2853,
      "Ġtre": 2854,
      "Ġpred": 2855,
      "aker": 2856,
      "izing": 2857,
      "su": 2858,
      "Ġconsum": 2859,
      "rup": 2860,
      "ĠMich": 2861,
      "Ġintrodu": 2862,
      "Ġsound": 2863,
      "Ġsense": 2864,
      "Ġisn": 2865,
      "ached": 2866,
      "ription": 2867,
      "nes": 2868,
      "Id": 2869,
      "ctor": 2870,
      "Ġlay": 2871,
      "ava": 2872,
      "ĠHigh": 2873,
      "Ġtown": 2874,
      "Ġnatural": 2875,
      "Cont": 2876,
      "Ġut": 2877,
      "sub": 2878,
      "Ġvia": 2879,
      "Ġpaper": 2880,
      "oo": 2881,
      "oring": 2882,
      "Ġapproach": 2883,
      "uments": 2884,
      "ĠDirect": 2885,
      "Ġhit": 2886,
      "ĠVal": 2887,
      "ĠDepartment": 2888,
      "Ġdecision": 2889,
      "ese": 2890,
      "oice": 2891,
      "Ġapplication": 2892,
      "ivil": 2893,
      "Ġhope": 2894,
      "Ġbegan": 2895,
      "ĠChina": 2896,
      "ĠOf": 2897,
      "Ġcover": 2898,
      "idth": 2899,
      "Ġsimply": 2900,
      "ufact": 2901,
      "Ġworked": 2902,
      "eks": 2903,
      "itution": 2904,
      "Ġdistrib": 2905,
      "Ġgrad": 2906,
      "ram": 2907,
      "Ġgirl": 2908,
      "astic": 2909,
      "Ġproblems": 2910,
      "inks": 2911,
      "Ġtreatment": 2912,
      "Ġcareer": 2913,
      "field": 2914,
      "Ġlives": 2915,
      "Ġdocument": 2916,
      "ouch": 2917,
      "Ġaw": 2918,
      "ĠKing": 2919,
      "Ġgrowth": 2920,
      "ĠSup": 2921,
      "Ð±": 2922,
      "Ġitself": 2923,
      "hood": 2924,
      "Ġclean": 2925,
      "ael": 2926,
      "Ġsection": 2927,
      "ĠIndia": 2928,
      "Ġimage": 2929,
      "Ġfund": 2930,
      "ospital": 2931,
      "Ġcoup": 2932,
      "Ġreported": 2933,
      "cing": 2934,
      "Ġsaw": 2935,
      "Ġloss": 2936,
      "Ġque": 2937,
      "aily": 2938,
      "Ġlate": 2939,
      "oke": 2940,
      "itute": 2941,
      "Ġunique": 2942,
      "ION": 2943,
      "ags": 2944,
      "ĠAng": 2945,
      "erc": 2946,
      "ĠPat": 2947,
      "orks": 2948,
      "Ġcurrently": 2949,
      "atives": 2950,
      ".)": 2951,
      "ror": 2952,
      "Ġsens": 2953,
      "urance": 2954,
      "ĠAssoci": 2955,
      "asc": 2956,
      "Ġprior": 2957,
      "augh": 2958,
      "rences": 2959,
      "new": 2960,
      "etimes": 2961,
      "Ġprint": 2962,
      "itter": 2963,
      "imum": 2964,
      "Ġsaf": 2965,
      "ÐµÐ½": 2966,
      "Ġrev": 2967,
      "Ġplayers": 2968,
      "Ġknowledge": 2969,
      "Ġgroups": 2970,
      "Ġresponse": 2971,
      "Ġinj": 2972,
      "airs": 2973,
      "ĠHol": 2974,
      "OT": 2975,
      "eal": 2976,
      "ĠCourt": 2977,
      "eta": 2978,
      "Ġbecom": 2979,
      "ĠII": 2980,
      "Ġsource": 2981,
      "obile": 2982,
      "Ġfavor": 2983,
      "arter": 2984,
      "order": 2985,
      "Ġwonder": 2986,
      "Ġintegr": 2987,
      "ĠTra": 2988,
      "lier": 2989,
      "ĠNet": 2990,
      "Ġrecently": 2991,
      "apan": 2992,
      "Ġstyle": 2993,
      "ĠYour": 2994,
      "LE": 2995,
      "Ġthemselves": 2996,
      "Ġopportunity": 2997,
      "ening": 2998,
      "ĠSan": 2999,
      "Ġinflu": 3000,
      "ta": 3001,
      "Ġthroughout": 3002,
      "ĠInc": 3003,
      "Ġincluded": 3004,
      "ĠGener": 3005,
      "_t": 3006,
      "At": 3007,
      "light": 3008,
      "Ġsect": 3009,
      "Ġbed": 3010,
      "})": 3011,
      "iforn": 3012,
      "ager": 3013,
      "Ġdeep": 3014,
      "Ġtour": 3015,
      "ran": 3016,
      "Ð³": 3017,
      "ĠTV": 3018,
      "ĠEnglish": 3019,
      "Ġconditions": 3020,
      "ĠTrump": 3021,
      "Ġdise": 3022,
      "Ġwritten": 3023,
      "Ġpresident": 3024,
      "Ġrunning": 3025,
      "pose": 3026,
      "ming": 3027,
      "Ġrelated": 3028,
      "ING": 3029,
      "iles": 3030,
      "ford": 3031,
      "Ġprotect": 3032,
      "attle": 3033,
      "ĠBlack": 3034,
      "Ġson": 3035,
      "def": 3036,
      "Ġsus": 3037,
      "mathcal": 3038,
      "lim": 3039,
      "Ġprofessional": 3040,
      "acc": 3041,
      "ky": 3042,
      "Ġarch": 3043,
      "Ġbase": 3044,
      "Ġcy": 3045,
      "ocal": 3046,
      "Ġhol": 3047,
      "Ġmother": 3048,
      "Ġlegal": 3049,
      "ĠDay": 3050,
      "ĠÐ¸": 3051,
      "rown": 3052,
      "Ġbooks": 3053,
      "Ġbuilt": 3054,
      "oper": 3055,
      "Ġlonger": 3056,
      "ida": 3057,
      "UR": 3058,
      "ittee": 3059,
      "Ġsex": 3060,
      "Ġexpected": 3061,
      "Ġground": 3062,
      "Ġveh": 3063,
      "ny": 3064,
      "td": 3065,
      "Ġpolice": 3066,
      "class": 3067,
      "pm": 3068,
      "Ġimplement": 3069,
      "ĠNow": 3070,
      "String": 3071,
      "Ġpractice": 3072,
      "Ġlearning": 3073,
      ",\\": 3074,
      "lements": 3075,
      "Ġjud": 3076,
      "Ġsett": 3077,
      "ĠAcc": 3078,
      "Ġemer": 3079,
      "}.": 3080,
      "aint": 3081,
      "da": 3082,
      "Ġconnect": 3083,
      "Ġstop": 3084,
      "Ġcustomers": 3085,
      "ĠFrom": 3086,
      "iqu": 3087,
      "ĠCommun": 3088,
      "Ġsepar": 3089,
      "ares": 3090,
      "\")": 3091,
      "AD": 3092,
      "Ġpublished": 3093,
      "ifornia": 3094,
      "Ġplease": 3095,
      "erved": 3096,
      "ĠAc": 3097,
      "idered": 3098,
      "Ġinside": 3099,
      "mon": 3100,
      "Ġinvolved": 3101,
      "Ġcard": 3102,
      "aves": 3103,
      "Is": 3104,
      "Ġhistor": 3105,
      "Ġobtain": 3106,
      "ements": 3107,
      "Ġcampaign": 3108,
      "Ġhimself": 3109,
      "Ġdesigned": 3110,
      "irth": 3111,
      "sequ": 3112,
      "ĠSen": 3113,
      "Ġmodern": 3114,
      "Ġcolor": 3115,
      "iece": 3116,
      "arc": 3117,
      "Ġmedical": 3118,
      "Ġrelease": 3119,
      "Ġweb": 3120,
      "Ġmach": 3121,
      "ĠCons": 3122,
      "orge": 3123,
      "Ġstates": 3124,
      "ado": 3125,
      "Ġchalleng": 3126,
      "Ġvot": 3127,
      "Ġattempt": 3128,
      "aries": 3129,
      "ĠÐ¾": 3130,
      "Ġanalysis": 3131,
      "equation": 3132,
      "Ġword": 3133,
      "resp": 3134,
      "ĠSome": 3135,
      "Ġwoman": 3136,
      "wood": 3137,
      "Ġweeks": 3138,
      "unction": 3139,
      "ÑĨ": 3140,
      "Ġlost": 3141,
      "Ġadditional": 3142,
      "ressed": 3143,
      "ĠSystem": 3144,
      "Ġ*/": 3145,
      "Ġensure": 3146,
      "Im": 3147,
      "Ġinstead": 3148,
      "alph": 3149,
      "ico": 3150,
      "Ġcomplex": 3151,
      "Ġled": 3152,
      "Ġexact": 3153,
      "Ġpretty": 3154,
      "Ġworth": 3155,
      "Ġextra": 3156,
      "ĠDem": 3157,
      "ests": 3158,
      "Ġcelebr": 3159,
      "Ġleading": 3160,
      "alls": 3161,
      "Ġleave": 3162,
      "Ġregion": 3163,
      "Ġdecl": 3164,
      "Ġregular": 3165,
      "Sp": 3166,
      "Ġvict": 3167,
      "rs": 3168,
      "Ġconduct": 3169,
      "BC": 3170,
      "Ġadminist": 3171,
      "Ġstri": 3172,
      "Ġoptions": 3173,
      "atter": 3174,
      "dom": 3175,
      "Ġlower": 3176,
      "https": 3177,
      "ĠBu": 3178,
      "Ġdetails": 3179,
      "Ġord": 3180,
      "List": 3181,
      "Ġstandard": 3182,
      "Sc": 3183,
      "ĠCollege": 3184,
      "oul": 3185,
      "Ġcand": 3186,
      "My": 3187,
      "irit": 3188,
      "ĠLa": 3189,
      "Ġmeeting": 3190,
      "Ġpan": 3191,
      "http": 3192,
      "Ġfight": 3193,
      "aches": 3194,
      "Ġinsp": 3195,
      "Ġemail": 3196,
      "Ġaverage": 3197,
      "Ġheav": 3198,
      "Ġprevent": 3199,
      "iment": 3200,
      "Ġplatform": 3201,
      "Ġoil": 3202,
      "ulations": 3203,
      "Ġanyone": 3204,
      "Ġactivities": 3205,
      "ĠDavid": 3206,
      "ties": 3207,
      "Ġevidence": 3208,
      "iber": 3209,
      "Ġhor": 3210,
      "Ġdrug": 3211,
      "Ġsil": 3212,
      "Ġblog": 3213,
      "Ġcross": 3214,
      "}(": 3215,
      "haps": 3216,
      "isions": 3217,
      "====": 3218,
      "sych": 3219,
      "mission": 3220,
      "Ġdiv": 3221,
      "ications": 3222,
      "Ġalbum": 3223,
      "Ġstudent": 3224,
      "opt": 3225,
      "itation": 3226,
      "Ġusers": 3227,
      "Ġfit": 3228,
      "Type": 3229,
      "CO": 3230,
      "rang": 3231,
      "ashington": 3232,
      "Ġconsidered": 3233,
      "Ġfather": 3234,
      "down": 3235,
      "ĠRed": 3236,
      "Ġsqu": 3237,
      "ĠTrans": 3238,
      "ĠDes": 3239,
      "ĠWhile": 3240,
      "erve": 3241,
      "Ġmaintain": 3242,
      "Ġplayed": 3243,
      "eed": 3244,
      "Ġbeautiful": 3245,
      "Ġband": 3246,
      "enced": 3247,
      "ĠOb": 3248,
      "Ġprojects": 3249,
      "Ġautom": 3250,
      "ĠAir": 3251,
      "Ġlatest": 3252,
      "Ġlanguage": 3253,
      "Ġlevels": 3254,
      "uted": 3255,
      "Ġcause": 3256,
      "Ġtal": 3257,
      "useum": 3258,
      "Ġreleased": 3259,
      "Ġtitle": 3260,
      "}^": 3261,
      "rael": 3262,
      "Ġbox": 3263,
      "Ġplaying": 3264,
      "Ġeconomic": 3265,
      "rie": 3266,
      "Ġreve": 3267,
      "Ġmag": 3268,
      "ĠGroup": 3269,
      "duc": 3270,
      "Ġetc": 3271,
      "pri": 3272,
      "bol": 3273,
      "Ġcoun": 3274,
      "Ġdraw": 3275,
      "ctions": 3276,
      "reng": 3277,
      "ĠTw": 3278,
      "inter": 3279,
      "Ġfast": 3280,
      "Ġdie": 3281,
      "Ð¾ÑĢ": 3282,
      "asons": 3283,
      "Ġhttps": 3284,
      "Ġreceive": 3285,
      "Ġgra": 3286,
      "].": 3287,
      "ĠBook": 3288,
      "Ġscreen": 3289,
      "ara": 3290,
      "ĠHist": 3291,
      "Val": 3292,
      "ĠÐº": 3293,
      "pd": 3294,
      "lying": 3295,
      "see": 3296,
      "gen": 3297,
      "erous": 3298,
      "One": 3299,
      "Ġreading": 3300,
      "vey": 3301,
      "ography": 3302,
      "Col": 3303,
      "ĠCalifornia": 3304,
      "Ġmanufact": 3305,
      "unt": 3306,
      "Ġprep": 3307,
      "Ġvalues": 3308,
      "Ġmatch": 3309,
      "ĠJapan": 3310,
      "body": 3311,
      "chan": 3312,
      "illing": 3313,
      "estern": 3314,
      "ĠFirst": 3315,
      "oom": 3316,
      "Res": 3317,
      "Ġimmedi": 3318,
      "Ġwasn": 3319,
      "Ð¾Ð´": 3320,
      "Ġhop": 3321,
      "Ġdisplay": 3322,
      "Ġbroad": 3323,
      "ibrary": 3324,
      "ĠJe": 3325,
      "used": 3326,
      "unk": 3327,
      "html": 3328,
      "\":": 3329,
      "Ġnecessary": 3330,
      "verse": 3331,
      "That": 3332,
      "do": 3333,
      "Ġdriv": 3334,
      "ĠEuropean": 3335,
      "Ġmovie": 3336,
      "Ġcook": 3337,
      "Ġmention": 3338,
      "rep": 3339,
      "ĠThen": 3340,
      "hem": 3341,
      "ĠStreet": 3342,
      "istry": 3343,
      "No": 3344,
      "ixed": 3345,
      "ha": 3346,
      "Ġblock": 3347,
      "Ġsold": 3348,
      "OS": 3349,
      "idents": 3350,
      "ĠDis": 3351,
      "rench": 3352,
      "Ġcouple": 3353,
      "omb": 3354,
      "Ġcomment": 3355,
      "Ġmultiple": 3356,
      "Ġbehav": 3357,
      "wise": 3358,
      "ependent": 3359,
      "Ġgoal": 3360,
      "Ġten": 3361,
      "board": 3362,
      "hold": 3363,
      "ĠResearch": 3364,
      "Ġability": 3365,
      "Ġbrand": 3366,
      "Ġprograms": 3367,
      "etic": 3368,
      "ĠEast": 3369,
      "ĠMor": 3370,
      "Ġsolution": 3371,
      "ĠCouncil": 3372,
      "pen": 3373,
      "anch": 3374,
      "Ġparents": 3375,
      "Ġwrite": 3376,
      "Ġsubs": 3377,
      "vis": 3378,
      "la": 3379,
      "Ġserious": 3380,
      "Ġhttp": 3381,
      "Ġextrem": 3382,
      "ĠSim": 3383,
      "View": 3384,
      "Ġsoftware": 3385,
      "Ġusually": 3386,
      "Ġinterview": 3387,
      "atal": 3388,
      "imately": 3389,
      "like": 3390,
      "Ġfelt": 3391,
      "vest": 3392,
      "Ġlocated": 3393,
      "ville": 3394,
      "mod": 3395,
      "Ġwrong": 3396,
      "ĠIN": 3397,
      "ĠPal": 3398,
      "oto": 3399,
      "Ġnature": 3400,
      "Ġhands": 3401,
      "zz": 3402,
      "ki": 3403,
      "iring": 3404,
      "Ġsurpr": 3405,
      "à¤": 3406,
      "Ġspeak": 3407,
      "ĠBritish": 3408,
      "Ġeffic": 3409,
      "EL": 3410,
      "Ġgave": 3411,
      "Ġbank": 3412,
      "Ġsubst": 3413,
      "umber": 3414,
      "ilies": 3415,
      "uate": 3416,
      "Ġplans": 3417,
      "Ġid": 3418,
      "Ġresources": 3419,
      "ords": 3420,
      "Ġer": 3421,
      "Ġannounced": 3422,
      "yond": 3423,
      "Ġdead": 3424,
      "Ġmax": 3425,
      "rick": 3426,
      "Ġrelig": 3427,
      "Ġideas": 3428,
      "Ġprinc": 3429,
      "ĠPaul": 3430,
      "Ġculture": 3431,
      "ĠCanada": 3432,
      "Ġphone": 3433,
      "Ġsyn": 3434,
      "acing": 3435,
      "Ð°Ð½": 3436,
      "Ġsales": 3437,
      "Ð¾Ð¼": 3438,
      "tic": 3439,
      "Ġbott": 3440,
      "mar": 3441,
      ".'": 3442,
      "Ġshown": 3443,
      "Ġlooks": 3444,
      "IG": 3445,
      "Ġpartners": 3446,
      "mercial": 3447,
      "var": 3448,
      "ĠDist": 3449,
      "osing": 3450,
      "Ġattention": 3451,
      "ĠEar": 3452,
      "ĠTechn": 3453,
      "Ġstar": 3454,
      "Ġdeveloped": 3455,
      "rote": 3456,
      "just": 3457,
      "../": 3458,
      "Ġthreat": 3459,
      "Ġcorrect": 3460,
      "Ġgoes": 3461,
      "lied": 3462,
      "Ġkids": 3463,
      "Ġbal": 3464,
      "ellow": 3465,
      "Ġstore": 3466,
      "ĠWashington": 3467,
      "Ġconsist": 3468,
      "rim": 3469,
      "Ġquickly": 3470,
      "lam": 3471,
      "ĠMod": 3472,
      "aren": 3473,
      "~\\": 3474,
      "Ð¾Ð»": 3475,
      "ĠDec": 3476,
      "Ġstories": 3477,
      "Ġrout": 3478,
      "log": 3479,
      "ĠProf": 3480,
      "Ġwhose": 3481,
      "Ġcenter": 3482,
      "lation": 3483,
      "Ġinteresting": 3484,
      "Ġsn": 3485,
      "ero": 3486,
      "Ġsle": 3487,
      "ĠRepublic": 3488,
      "Ġready": 3489,
      "Ġsafety": 3490,
      "Ġcollection": 3491,
      "ports": 3492,
      "Ġdrive": 3493,
      "azing": 3494,
      "inated": 3495,
      "Ġparts": 3496,
      "Ġdigital": 3497,
      "Ġboy": 3498,
      "mark": 3499,
      "Ġmid": 3500,
      "Ġmessage": 3501,
      "Ġge": 3502,
      "Ġpositive": 3503,
      "Ġtowards": 3504,
      "Ġeffective": 3505,
      "wide": 3506,
      "Ġcapital": 3507,
      "ened": 3508,
      "Ġdemon": 3509,
      "odes": 3510,
      "Ġknew": 3511,
      "hat": 3512,
      "Ġaward": 3513,
      "band": 3514,
      "Ġbrought": 3515,
      "Ġcosts": 3516,
      "Ð°Ð»": 3517,
      "Ġbus": 3518,
      "rast": 3519,
      "\\\\\\\\": 3520,
      "Ġap": 3521,
      "ecutive": 3522,
      "sum": 3523,
      "Ġdoor": 3524,
      "Ġsafe": 3525,
      "Ġsuff": 3526,
      "section": 3527,
      "Ġpric": 3528,
      "men": 3529,
      "Ġstage": 3530,
      "Ġflow": 3531,
      "ils": 3532,
      "Ġsummer": 3533,
      "Ġ!": 3534,
      "Our": 3535,
      "ÑģÐº": 3536,
      "Pl": 3537,
      "apter": 3538,
      "ĠAre": 3539,
      "EO": 3540,
      "comp": 3541,
      "ache": 3542,
      "Ġsal": 3543,
      "ynam": 3544,
      "Ã¨": 3545,
      "arily": 3546,
      "><": 3547,
      "onent": 3548,
      "Ġhear": 3549,
      "After": 3550,
      "ĠIndian": 3551,
      "Ġstreng": 3552,
      "Ġsaying": 3553,
      "Ġpopulation": 3554,
      "Ġplant": 3555,
      "ĠOut": 3556,
      "Ġchoose": 3557,
      "Ġencour": 3558,
      "ĠÐ´": 3559,
      "Ġchoice": 3560,
      "Ġwide": 3561,
      "mitted": 3562,
      "mas": 3563,
      "Ġfair": 3564,
      "Ġsituation": 3565,
      "Ġmorning": 3566,
      "Ġgives": 3567,
      "ĠPost": 3568,
      "Ġanswer": 3569,
      "Ġmilitary": 3570,
      "enty": 3571,
      "ato": 3572,
      "Ġball": 3573,
      "Ġ)": 3574,
      "itect": 3575,
      "ĠBusiness": 3576,
      "Ġteac": 3577,
      "bit": 3578,
      "Ġliter": 3579,
      "Ġqual": 3580,
      "Ġdecided": 3581,
      "urt": 3582,
      "Ġborn": 3583,
      "Ġheard": 3584,
      "ĠRet": 3585,
      "Se": 3586,
      "Ġfa": 3587,
      "Ġdirectly": 3588,
      "ĠAN": 3589,
      "ulated": 3590,
      "enge": 3591,
      "Ġeyes": 3592,
      "Ġavoid": 3593,
      "Ġaim": 3594,
      "Ġorganization": 3595,
      "Ġpark": 3596,
      "Ġdark": 3597,
      "Ġlif": 3598,
      "Ġblood": 3599,
      "itiz": 3600,
      "Ġlocation": 3601,
      "raz": 3602,
      "more": 3603,
      "Ġyourself": 3604,
      "ĠCap": 3605,
      "Ġdetail": 3606,
      "Ġtrust": 3607,
      "></": 3608,
      "Ġscient": 3609,
      "ĠIsrael": 3610,
      "Ġacqu": 3611,
      "____": 3612,
      "UT": 3613,
      "Ġeffects": 3614,
      "box": 3615,
      "Ġorganiz": 3616,
      "Ġconcept": 3617,
      "Ġnation": 3618,
      "aught": 3619,
      "Ġstudies": 3620,
      "Ġchance": 3621,
      "Ġallows": 3622,
      "ĠFace": 3623,
      "type": 3624,
      "Ġskills": 3625,
      "Ġdevice": 3626,
      "Ġhappy": 3627,
      "Ġround": 3628,
      "no": 3629,
      "ĠHere": 3630,
      "],": 3631,
      "iding": 3632,
      "ĠJames": 3633,
      "Ġassociated": 3634,
      "Ġones": 3635,
      "Ġlack": 3636,
      "ago": 3637,
      "Ġcondition": 3638,
      "Ġturned": 3639,
      "Ġerror": 3640,
      "Ġdirector": 3641,
      "Ġremember": 3642,
      "ĠInter": 3643,
      "Ġinnov": 3644,
      "change": 3645,
      "Ġgiving": 3646,
      "Ġcam": 3647,
      "Ġfeature": 3648,
      "Ġoccur": 3649,
      "igned": 3650,
      "chen": 3651,
      "round": 3652,
      "Ġfrequ": 3653,
      "Ġprec": 3654,
      "CC": 3655,
      "rial": 3656,
      "isf": 3657,
      "Ġproviding": 3658,
      "Ġstatement": 3659,
      "ĠAdd": 3660,
      "Ġneigh": 3661,
      "Ġforce": 3662,
      "Ġstructure": 3663,
      "Ġter": 3664,
      "Ġbillion": 3665,
      "Ġhous": 3666,
      "Ġschools": 3667,
      "Ġdownload": 3668,
      "ĠProgram": 3669,
      "istics": 3670,
      "Ġscience": 3671,
      "Ġplayer": 3672,
      "Ġdat": 3673,
      "han": 3674,
      "Ġclub": 3675,
      "ĠUs": 3676,
      "IM": 3677,
      "list": 3678,
      "aly": 3679,
      "arr": 3680,
      "uman": 3681,
      "ishing": 3682,
      "Ġdog": 3683,
      "She": 3684,
      "ipment": 3685,
      "ĠJack": 3686,
      "Ġlic": 3687,
      "weet": 3688,
      "yd": 3689,
      "force": 3690,
      "king": 3691,
      "Ġstring": 3692,
      "Ġtypes": 3693,
      "Ġ=>": 3694,
      "Ġstra": 3695,
      "Ġgets": 3696,
      "ption": 3697,
      "Ġphysical": 3698,
      "ategy": 3699,
      "mp": 3700,
      "ĠFriday": 3701,
      "Ġri": 3702,
      "Ġspeed": 3703,
      "Ġassess": 3704,
      "ĠReview": 3705,
      "PS": 3706,
      "Ġcapt": 3707,
      "ios": 3708,
      "return": 3709,
      "Get": 3710,
      "ĠEduc": 3711,
      "ĠGeneral": 3712,
      "eters": 3713,
      "Ġfeed": 3714,
      "Ġindic": 3715,
      "Ġprem": 3716,
      "Ġlimited": 3717,
      "ĠTHE": 3718,
      "Ġhighly": 3719,
      "ternal": 3720,
      "App": 3721,
      "ĠCong": 3722,
      "Ġachieve": 3723,
      "ube": 3724,
      "Ġmeasure": 3725,
      "ĠBoard": 3726,
      "Ġarriv": 3727,
      "Ġbud": 3728,
      "Ġconvers": 3729,
      "Ġcomfort": 3730,
      "ĠGoogle": 3731,
      "ĠPublic": 3732,
      "Ġded": 3733,
      "Ġfem": 3734,
      "Ġ==": 3735,
      "ĠScience": 3736,
      "Ġâ": 3737,
      "Ġprogress": 3738,
      "rupt": 3739,
      "ancy": 3740,
      "Ġeasily": 3741,
      "irus": 3742,
      "ĠLet": 3743,
      "met": 3744,
      "Ġoption": 3745,
      "bon": 3746,
      "Ġearn": 3747,
      "Ġenter": 3748,
      "ĠAnn": 3749,
      "Ġmis": 3750,
      "ĠWhite": 3751,
      "Ġwrote": 3752,
      "Ġtrade": 3753,
      "i_": 3754,
      "Ġvoid": 3755,
      "ĠAustralia": 3756,
      "ĠYear": 3757,
      "aturday": 3758,
      "ka": 3759,
      "Ġdisease": 3760,
      "Ġfarm": 3761,
      "imal": 3762,
      "Ġsuccessful": 3763,
      "Ġvariety": 3764,
      "ĠÐ½Ð°": 3765,
      "Ġincreasing": 3766,
      "Or": 3767,
      "ĠIS": 3768,
      "Ġtemper": 3769,
      "Ġrespond": 3770,
      "Ġfirm": 3771,
      "ros": 3772,
      "Ġcredit": 3773,
      "Ġang": 3774,
      "rab": 3775,
      "Ġfamilies": 3776,
      "Ġtried": 3777,
      "iation": 3778,
      "ae": 3779,
      "Ġslow": 3780,
      "Ġwel": 3781,
      "Ġsche": 3782,
      "Ġincreased": 3783,
      "ĠCompany": 3784,
      "ĠGreen": 3785,
      "ĠGreat": 3786,
      "ecause": 3787,
      "Ġsurv": 3788,
      "bre": 3789,
      "Ġrecommend": 3790,
      "iant": 3791,
      "Ġcandid": 3792,
      "den": 3793,
      "Ð¾Ð³": 3794,
      "Ġdemand": 3795,
      "De": 3796,
      "Ġimag": 3797,
      "ĠPort": 3798,
      "Ġnovel": 3799,
      "orage": 3800,
      "Ġdifference": 3801,
      "Ġweight": 3802,
      "UN": 3803,
      "fo": 3804,
      "Ġcentury": 3805,
      "Ġlooked": 3806,
      "Ġsem": 3807,
      "lands": 3808,
      "_d": 3809,
      "Ġsun": 3810,
      "Ġdegree": 3811,
      "Data": 3812,
      "Ġdu": 3813,
      "ĠGet": 3814,
      "ĠInstitute": 3815,
      "aby": 3816,
      "hest": 3817,
      "Ġindividuals": 3818,
      "Ġgas": 3819,
      "Ġhuge": 3820,
      "ibly": 3821,
      "Ad": 3822,
      "Ġactivity": 3823,
      "with": 3824,
      "ien": 3825,
      "Ġinform": 3826,
      "Ġreach": 3827,
      "!\"": 3828,
      "VID": 3829,
      "Ġsen": 3830,
      "Ġnearly": 3831,
      "encies": 3832,
      "Ġpull": 3833,
      "Ġ`": 3834,
      "gs": 3835,
      "urrent": 3836,
      "Ġcomputer": 3837,
      "CH": 3838,
      "Ġparticularly": 3839,
      "ste": 3840,
      "ĠAssociation": 3841,
      "icip": 3842,
      "ults": 3843,
      "Ġsort": 3844,
      "ĠChurch": 3845,
      "ester": 3846,
      "Ġwood": 3847,
      "ho": 3848,
      "ĠDevelop": 3849,
      "Ġitems": 3850,
      "$\\": 3851,
      "Ġrock": 3852,
      "uration": 3853,
      "burg": 3854,
      "ken": 3855,
      "Ġnull": 3856,
      "ĠEv": 3857,
      "ĠRich": 3858,
      "code": 3859,
      "ĠService": 3860,
      "Ġnamed": 3861,
      "Ġpiece": 3862,
      "Ġthinking": 3863,
      "but": 3864,
      "Le": 3865,
      "ĠRober": 3866,
      "Ġemb": 3867,
      "Ġgrowing": 3868,
      "Ġmodels": 3869,
      "Ġmeaning": 3870,
      "amma": 3871,
      "Ġbeyond": 3872,
      "ĠVol": 3873,
      "ius": 3874,
      "bu": 3875,
      "aled": 3876,
      "itude": 3877,
      "lick": 3878,
      "Ġunderstanding": 3879,
      "Ġbenefits": 3880,
      "overy": 3881,
      "Ġcool": 3882,
      "undred": 3883,
      "Ġearlier": 3884,
      "Ġsometimes": 3885,
      "za": 3886,
      "Ġfalse": 3887,
      "Ġroll": 3888,
      ")\\": 3889,
      "Ġpromot": 3890,
      "Ġreflect": 3891,
      "Ġcompletely": 3892,
      "Ġrefer": 3893,
      "venue": 3894,
      "Ġcateg": 3895,
      "Not": 3896,
      "ĠDan": 3897,
      "osition": 3898,
      "Ġmount": 3899,
      "Ġsell": 3900,
      "itable": 3901,
      "ĠTex": 3902,
      "igma": 3903,
      "Ġfully": 3904,
      "Ġaltern": 3905,
      "Ġwife": 3906,
      "ĠMart": 3907,
      "mu": 3908,
      "inn": 3909,
      "rief": 3910,
      "ston": 3911,
      "Ġclick": 3912,
      "ÑĢÐµ": 3913,
      "Ġbeginning": 3914,
      "Ġgreen": 3915,
      "ĠRead": 3916,
      "Ġclients": 3917,
      "Ġsociety": 3918,
      "ĠPress": 3919,
      "Ġthous": 3920,
      "Ġexcell": 3921,
      "ĠFound": 3922,
      "itz": 3923,
      "lear": 3924,
      "Ġregist": 3925,
      "icon": 3926,
      "onday": 3927,
      "Ġgrand": 3928,
      "ously": 3929,
      "ĠSunday": 3930,
      "Ġemployees": 3931,
      "Ġmyself": 3932,
      "includ": 3933,
      "Ind": 3934,
      "berg": 3935,
      "eria": 3936,
      "ĠArch": 3937,
      "oday": 3938,
      "Ġrace": 3939,
      "Ġlargest": 3940,
      "ĠJew": 3941,
      "ipl": 3942,
      "Ġspent": 3943,
      "Ġil": 3944,
      "Ġplaces": 3945,
      "Ġtraditional": 3946,
      "From": 3947,
      "izes": 3948,
      "Ġtouch": 3949,
      "Ġnumbers": 3950,
      "'.": 3951,
      "Ġult": 3952,
      "itar": 3953,
      "Ġload": 3954,
      "ĠPre": 3955,
      "aughter": 3956,
      "EM": 3957,
      "IL": 3958,
      "Ġbasis": 3959,
      "Ġstarting": 3960,
      "Ġcontext": 3961,
      "Ġcustomer": 3962,
      "iance": 3963,
      "Ġsave": 3964,
      "IV": 3965,
      "ĠHall": 3966,
      "nd": 3967,
      "Ġparam": 3968,
      "Ġnote": 3969,
      "Ġstrateg": 3970,
      "Ġclin": 3971,
      "Ġimages": 3972,
      "ĠBer": 3973,
      "ĠFrench": 3974,
      "=\\": 3975,
      "ĠEngland": 3976,
      "ĠMichael": 3977,
      "Ġexcept": 3978,
      "annel": 3979,
      "ÑĪ": 3980,
      "Ġallowed": 3981,
      "Ġgovern": 3982,
      "Ġcalc": 3983,
      "Ġlines": 3984,
      "rian": 3985,
      "IP": 3986,
      "Ġbirth": 3987,
      "rugg": 3988,
      "ĠFacebook": 3989,
      "ĠPhil": 3990,
      "Ġnormal": 3991,
      "Ġcivil": 3992,
      "ĠThom": 3993,
      "ĠInt": 3994,
      "Do": 3995,
      "ĠWed": 3996,
      "Ñİ": 3997,
      "Ġcarry": 3998,
      "Ġuses": 3999,
      "Ġcompared": 4000,
      "ii": 4001,
      "Ġpurpose": 4002,
      "Ġfinally": 4003,
      "Ġdro": 4004,
      "Ġreports": 4005,
      "Bl": 4006,
      "ĠDel": 4007,
      "ĠKe": 4008,
      "rey": 4009,
      "ĠAfrica": 4010,
      "Ġapply": 4011,
      "Ġconstruction": 4012,
      "ronic": 4013,
      "ĠWind": 4014,
      "Ġfine": 4015,
      "Ġchanged": 4016,
      "Ġcontinu": 4017,
      "Ġdescribed": 4018,
      "ĠÂ£": 4019,
      "inese": 4020,
      "yp": 4021,
      "net": 4022,
      "Ġcast": 4023,
      "Ġmer": 4024,
      "ĠDirector": 4025,
      "arrow": 4026,
      "ĠBen": 4027,
      "ĠOffice": 4028,
      "acity": 4029,
      "elta": 4030,
      "ocks": 4031,
      "Ġserved": 4032,
      "Ġfloor": 4033,
      "Ġinvestment": 4034,
      "Ġaccom": 4035,
      "Ġdied": 4036,
      "Ġconv": 4037,
      "Ġactive": 4038,
      "ĠJournal": 4039,
      "Ġremain": 4040,
      "Ġworkers": 4041,
      "Ġvoice": 4042,
      "Ġcopy": 4043,
      "Ġmaterials": 4044,
      "ENT": 4045,
      "ellig": 4046,
      "Ġmoved": 4047,
      "Ġgold": 4048,
      "alpha": 4049,
      "Ġdaily": 4050,
      "olf": 4051,
      "estival": 4052,
      "ona": 4053,
      "Ġsolutions": 4054,
      "ĠSur": 4055,
      "Ġappropri": 4056,
      "ĠCommission": 4057,
      "_p": 4058,
      "amily": 4059,
      "irection": 4060,
      "Ġrules": 4061,
      "Ġsust": 4062,
      "Ġmoving": 4063,
      "item": 4064,
      "Ġfederal": 4065,
      "ĠBel": 4066,
      "Ġbusinesses": 4067,
      "ula": 4068,
      "Ġmechan": 4069,
      "param": 4070,
      "lo": 4071,
      "iers": 4072,
      "house": 4073,
      "Ġeval": 4074,
      "Ġcharacters": 4075,
      "Ġsend": 4076,
      "Ġtransport": 4077,
      "Ġdream": 4078,
      "Ġvan": 4079,
      "Ġcollabor": 4080,
      "Ġcells": 4081,
      "ĠServices": 4082,
      "Ob": 4083,
      "ander": 4084,
      "Man": 4085,
      "ĠSol": 4086,
      "Ġpaid": 4087,
      "Ġcorpor": 4088,
      "ĠMac": 4089,
      "hips": 4090,
      "mathbb": 4091,
      "Ġcreating": 4092,
      "Gr": 4093,
      "Ġsurface": 4094,
      "Ġexpert": 4095,
      "respond": 4096,
      "ĠWork": 4097,
      "Ġeight": 4098,
      "igation": 4099,
      "Ġ\\\\": 4100,
      "Ġtim": 4101,
      "igr": 4102,
      "ĠDef": 4103,
      "ĠMost": 4104,
      "ÑĢÐ¸": 4105,
      "Ġlength": 4106,
      "Ġalthough": 4107,
      "place": 4108,
      "Ġestablished": 4109,
      "Ġemot": 4110,
      "ĠGold": 4111,
      "Ġfresh": 4112,
      "ĠSaturday": 4113,
      "ĠDemocr": 4114,
      "ulate": 4115,
      "mary": 4116,
      "ano": 4117,
      "aling": 4118,
      "Ġfollowed": 4119,
      "Ġcommercial": 4120,
      "Ġtransfer": 4121,
      "Ġopportunities": 4122,
      "Ġthrow": 4123,
      "ĠSub": 4124,
      "ĠMem": 4125,
      "Ġeffort": 4126,
      "Ġstatus": 4127,
      "coming": 4128,
      "ancing": 4129,
      "Ġplanning": 4130,
      "Ġvill": 4131,
      "ervation": 4132,
      "icine": 4133,
      "They": 4134,
      "Ġimpl": 4135,
      "kn": 4136,
      "ĠGovernment": 4137,
      "itely": 4138,
      "oyal": 4139,
      "bt": 4140,
      "Ġpattern": 4141,
      "ĠAngel": 4142,
      "gu": 4143,
      "Ġinsurance": 4144,
      "Ġdesp": 4145,
      "Ġteams": 4146,
      "Ġstock": 4147,
      "Be": 4148,
      "ĠPlay": 4149,
      "Ġestim": 4150,
      "Ġamazing": 4151,
      "Ġstrugg": 4152,
      "ĠFil": 4153,
      "ĠMusic": 4154,
      "Ġrestaur": 4155,
      "Ġexactly": 4156,
      "ĠBest": 4157,
      "Ġ%": 4158,
      "ocol": 4159,
      "state": 4160,
      "ĠChristian": 4161,
      "porary": 4162,
      "_i": 4163,
      "ĠMag": 4164,
      "Ġefforts": 4165,
      "')": 4166,
      "Ġaspect": 4167,
      "ĠEvery": 4168,
      "Ġple": 4169,
      "ustr": 4170,
      "Ġtools": 4171,
      "ya": 4172,
      "II": 4173,
      "ÅĤ": 4174,
      "atively": 4175,
      "Ġvirt": 4176,
      "ĠHome": 4177,
      "DA": 4178,
      "Ġfans": 4179,
      "ĠMal": 4180,
      "Qu": 4181,
      "Ġmarketing": 4182,
      "reate": 4183,
      "lor": 4184,
      "ĠMat": 4185,
      "Ġinterested": 4186,
      "Ġexpand": 4187,
      "Ġwall": 4188,
      "Ġaffect": 4189,
      "Ġ||": 4190,
      "ĠLife": 4191,
      "ĠSing": 4192,
      "MS": 4193,
      "ĠÃł": 4194,
      "Ġdouble": 4195,
      "ÐµÐ»": 4196,
      "Ġanti": 4197,
      "ĠSam": 4198,
      "Ġcert": 4199,
      "Ġseven": 4200,
      "ifying": 4201,
      "ÑĤÐ°": 4202,
      "Ġcontain": 4203,
      "ĠTexas": 4204,
      "Ġspirit": 4205,
      "arden": 4206,
      "ait": 4207,
      "ĠBank": 4208,
      "term": 4209,
      "ĠLeg": 4210,
      "ĠClass": 4211,
      "Ġmethods": 4212,
      "Ġdemonstr": 4213,
      "Ġnice": 4214,
      "point": 4215,
      "\");": 4216,
      "onents": 4217,
      "Ġalone": 4218,
      "Ġinitial": 4219,
      "olic": 4220,
      "Ġstream": 4221,
      "Ġmovement": 4222,
      "Ġconsult": 4223,
      "ĠMary": 4224,
      "ĠEven": 4225,
      "Ġattract": 4226,
      "NA": 4227,
      "Ġexhib": 4228,
      "E_": 4229,
      "Ġnames": 4230,
      "Ġhundred": 4231,
      "Ġorigin": 4232,
      "rend": 4233,
      "Ġmiddle": 4234,
      "ĠSpec": 4235,
      "istan": 4236,
      "Ġequipment": 4237,
      "Ġfeet": 4238,
      "Ġkit": 4239,
      "Ġcollege": 4240,
      "Ġmobile": 4241,
      "Ġsatisf": 4242,
      "ĠRel": 4243,
      "sey": 4244,
      "isation": 4245,
      "ĠOF": 4246,
      "Ġpressure": 4247,
      "Ġfavorite": 4248,
      "Ġshoot": 4249,
      "Ġdeliver": 4250,
      "Ġapplications": 4251,
      "Ġgreater": 4252,
      "Ġepis": 4253,
      "Ð¾Ð½": 4254,
      "iller": 4255,
      "ĠOther": 4256,
      "edom": 4257,
      "ĠST": 4258,
      "Ġbound": 4259,
      "Ġcommunities": 4260,
      "ĠMonday": 4261,
      "Ġforeign": 4262,
      "ĠEducation": 4263,
      "ĠFranc": 4264,
      "Ġproced": 4265,
      "AG": 4266,
      "Ġconstant": 4267,
      "Ġcontinued": 4268,
      "Ġspect": 4269,
      "Ġcertainly": 4270,
      "icks": 4271,
      "Ġskin": 4272,
      "Ð¶": 4273,
      "Ġrequirements": 4274,
      "Ġsho": 4275,
      "Ab": 4276,
      "Ġhappened": 4277,
      "Ġmap": 4278,
      "Ġ?": 4279,
      "Ġhospital": 4280,
      "ampions": 4281,
      "Ġfol": 4282,
      "ĠRoad": 4283,
      "IR": 4284,
      "vention": 4285,
      "ga": 4286,
      "Ġfear": 4287,
      "ĠFlor": 4288,
      "Ġcentral": 4289,
      "ota": 4290,
      "string": 4291,
      "Ġcancer": 4292,
      "Ġelements": 4293,
      "Ġwarm": 4294,
      "Ġcommit": 4295,
      "reci": 4296,
      "Ġclient": 4297,
      "Ġquarter": 4298,
      "ursday": 4299,
      "Post": 4300,
      "ĠCam": 4301,
      "ologies": 4302,
      "agon": 4303,
      "ĠPM": 4304,
      "Ġserve": 4305,
      "Ġcritical": 4306,
      "uesday": 4307,
      "top": 4308,
      "Ġwants": 4309,
      "Ġopin": 4310,
      "ĠJer": 4311,
      "ĠÐ·": 4312,
      "Ġbenefit": 4313,
      "Ġexisting": 4314,
      "akers": 4315,
      "Ġshot": 4316,
      "Ġchurch": 4317,
      "ĠÐ¼": 4318,
      "Ġpassed": 4319,
      "iled": 4320,
      "iec": 4321,
      "Ġoverall": 4322,
      "ĠMil": 4323,
      "Ġappoint": 4324,
      "_s": 4325,
      "Ġprimary": 4326,
      "Ġbur": 4327,
      "ĠCommittee": 4328,
      "ĠOver": 4329,
      "Ġbrother": 4330,
      "eful": 4331,
      "Ġhour": 4332,
      "OL": 4333,
      "Ġsch": 4334,
      "ria": 4335,
      "iences": 4336,
      "Ġmicro": 4337,
      "_n": 4338,
      "Ġsites": 4339,
      "Ġannual": 4340,
      "Ġlimit": 4341,
      "miss": 4342,
      "ĠGeorge": 4343,
      "Ġcharge": 4344,
      "-\\": 4345,
      "ĠMet": 4346,
      "rix": 4347,
      "}^{": 4348,
      "Ġrates": 4349,
      "Ġhelped": 4350,
      "Ġdang": 4351,
      "Ġelectric": 4352,
      "ĠFore": 4353,
      "Ġadvant": 4354,
      "andom": 4355,
      "Ġspread": 4356,
      "********": 4357,
      "Ã³n": 4358,
      "Ġsetting": 4359,
      "Ġelement": 4360,
      "Ġsequ": 4361,
      "Ġstuff": 4362,
      "AB": 4363,
      "Ġestablish": 4364,
      "ĠÐ³": 4365,
      "Ġcru": 4366,
      "iny": 4367,
      "hens": 4368,
      "ĠSee": 4369,
      "Ġunit": 4370,
      "inate": 4371,
      "Ġpeace": 4372,
      "Ġproduced": 4373,
      "Ġwid": 4374,
      "ferences": 4375,
      "Ġbackground": 4376,
      "ĠManagement": 4377,
      "inner": 4378,
      "Ġleader": 4379,
      "ĠChinese": 4380,
      "Ġpolic": 4381,
      "Ġhair": 4382,
      "Ġclimate": 4383,
      "Ġimmediately": 4384,
      "Ġbeg": 4385,
      "SS": 4386,
      "Ġjournal": 4387,
      "Ġeconomy": 4388,
      "pre": 4389,
      "Ġiniti": 4390,
      "ocation": 4391,
      "arant": 4392,
      "ĠAM": 4393,
      "Ġpicture": 4394,
      "Ġbill": 4395,
      "ouble": 4396,
      "Ġoperations": 4397,
      "ady": 4398,
      "Add": 4399,
      "Ġperhaps": 4400,
      "uty": 4401,
      "ashion": 4402,
      "Ġmagn": 4403,
      "Ġabsol": 4404,
      "ĠUSA": 4405,
      "ulf": 4406,
      "ĠSal": 4407,
      "Ġtherefore": 4408,
      "print": 4409,
      "pective": 4410,
      "ĠGood": 4411,
      "Ġhref": 4412,
      "Ġpoor": 4413,
      "levant": 4414,
      "cel": 4415,
      "Ġpresented": 4416,
      "Ġconnection": 4417,
      "Ġsale": 4418,
      "Ġpsych": 4419,
      "ĠRob": 4420,
      "Ġshared": 4421,
      "----------------": 4422,
      "ĠPlan": 4423,
      "actions": 4424,
      "Ġresponsible": 4425,
      "Ġpen": 4426,
      "well": 4427,
      "Ġcitiz": 4428,
      "Ġremains": 4429,
      "Ġcas": 4430,
      "ĠCr": 4431,
      "Ġletter": 4432,
      "Ġbudget": 4433,
      "ĠCongress": 4434,
      "ette": 4435,
      "value": 4436,
      "ourney": 4437,
      "Ġchem": 4438,
      "nesday": 4439,
      "ĠWell": 4440,
      "Ġinput": 4441,
      "ĠLou": 4442,
      "Now": 4443,
      "rapy": 4444,
      "ella": 4445,
      "ĠAlex": 4446,
      "Ġcouldn": 4447,
      "Ġapprox": 4448,
      "care": 4449,
      "Ġpow": 4450,
      "Ġesc": 4451,
      "CT": 4452,
      "ipe": 4453,
      "mm": 4454,
      "âĢ¢": 4455,
      "data": 4456,
      "url": 4457,
      "ĠJes": 4458,
      "ĠBay": 4459,
      "While": 4460,
      "Ã©s": 4461,
      "eared": 4462,
      "atever": 4463,
      "Ġreduce": 4464,
      "edy": 4465,
      "ĠBre": 4466,
      "Ġcry": 4467,
      "ĠChild": 4468,
      "Ġtalking": 4469,
      "ework": 4470,
      "rive": 4471,
      "Ġjoin": 4472,
      "word": 4473,
      "Ġpatient": 4474,
      "Ġtick": 4475,
      "Ġpurchase": 4476,
      "ĠAP": 4477,
      "ĠChristmas": 4478,
      "ĠStr": 4479,
      "Ġmachine": 4480,
      "];": 4481,
      "CA": 4482,
      "Ġanaly": 4483,
      "Ġstrategy": 4484,
      "atus": 4485,
      "Ġmaybe": 4486,
      "Ġbasic": 4487,
      "Ġgrant": 4488,
      "Ġgoals": 4489,
      "Ġdoll": 4490,
      "vere": 4491,
      "Ġhelps": 4492,
      "Ġincome": 4493,
      "Ġexerc": 4494,
      "Ġlarger": 4495,
      "ĠFrance": 4496,
      "Ġchallenge": 4497,
      "efore": 4498,
      "Ġfeeling": 4499,
      "ĠAtt": 4500,
      "ooth": 4501,
      "ĠPeople": 4502,
      "ĠHistory": 4503,
      "Ġthus": 4504,
      "Ġenh": 4505,
      "Ġstraight": 4506,
      "Ġreasons": 4507,
      "Ġvehicle": 4508,
      "Ġtrip": 4509,
      "Ġfigure": 4510,
      "ĠDevelopment": 4511,
      "ĠBill": 4512,
      "works": 4513,
      "cher": 4514,
      "Ġsecret": 4515,
      "Ġmission": 4516,
      "anned": 4517,
      "Ġoffered": 4518,
      "Ġowners": 4519,
      "oms": 4520,
      "Value": 4521,
      "Ġindependent": 4522,
      "Ġproduce": 4523,
      "ruit": 4524,
      "Ġquant": 4525,
      "osh": 4526,
      "////": 4527,
      "Ġscen": 4528,
      "abase": 4529,
      "ĠMiss": 4530,
      "ulture": 4531,
      "ĠStar": 4532,
      "Ġmill": 4533,
      "Ġgraph": 4534,
      "Ġir": 4535,
      "rad": 4536,
      "Ġpet": 4537,
      "Ġwish": 4538,
      "Ġaccur": 4539,
      "ĠSocial": 4540,
      "ĠSociety": 4541,
      "Ġwait": 4542,
      "file": 4543,
      "oma": 4544,
      "Ġconfig": 4545,
      "Ġahead": 4546,
      "azon": 4547,
      "Mod": 4548,
      "ĠRiver": 4549,
      "Ġlab": 4550,
      "roy": 4551,
      "Ġpowerful": 4552,
      "Ġeth": 4553,
      "ĠSince": 4554,
      "Ġcomments": 4555,
      "ructure": 4556,
      "Ġacadem": 4557,
      "outhern": 4558,
      "Ġwild": 4559,
      "Ġsurround": 4560,
      "Ġtruth": 4561,
      "Ġvote": 4562,
      "ini": 4563,
      "Ġlegis": 4564,
      "Ġstation": 4565,
      "Ġorganizations": 4566,
      "Ġcorrespond": 4567,
      "ĠEr": 4568,
      "public": 4569,
      "ĠIntern": 4570,
      "_c": 4571,
      "imb": 4572,
      "ĠConst": 4573,
      "ĠFe": 4574,
      "eline": 4575,
      "Acc": 4576,
      "essage": 4577,
      "Ġelection": 4578,
      "Ġopening": 4579,
      "Read": 4580,
      "Ġspot": 4581,
      "Ġentry": 4582,
      "ĠCOVID": 4583,
      "Ġinstance": 4584,
      "Ġrepe": 4585,
      "Fr": 4586,
      "ĠHam": 4587,
      "pi": 4588,
      "Ġgone": 4589,
      "Ġmiles": 4590,
      "eds": 4591,
      "Ġobvious": 4592,
      "ĠSmith": 4593,
      "Ġblue": 4594,
      "($": 4595,
      "Ġgun": 4596,
      "Ġtrain": 4597,
      "Ġexcellent": 4598,
      "Ġmur": 4599,
      "ĠRem": 4600,
      "^{\\": 4601,
      "ĠCamp": 4602,
      "width": 4603,
      "Ġmemory": 4604,
      "Ġcompleted": 4605,
      "Ġsav": 4606,
      "Ġscene": 4607,
      "Ġhighest": 4608,
      "gn": 4609,
      "Ġspecies": 4610,
      "ĠUnder": 4611,
      "Ġsports": 4612,
      "orial": 4613,
      "Ġtoward": 4614,
      "Ġcontroll": 4615,
      "tered": 4616,
      "Ġheat": 4617,
      "Ġdirection": 4618,
      "Ġhus": 4619,
      "standing": 4620,
      "ĠSa": 4621,
      "ĠString": 4622,
      "Ġartist": 4623,
      "Ġsmart": 4624,
      "ĠAlso": 4625,
      "Ġchallenges": 4626,
      "Ġprop": 4627,
      "ĠSl": 4628,
      "................": 4629,
      "soft": 4630,
      "ĠMex": 4631,
      "Ġunc": 4632,
      "och": 4633,
      "eps": 4634,
      "ĠProject": 4635,
      "Ġpages": 4636,
      "ĠBig": 4637,
      "Ġagreement": 4638,
      "array": 4639,
      "Don": 4640,
      "iques": 4641,
      "ĠFoundation": 4642,
      "ĠClub": 4643,
      "align": 4644,
      "iling": 4645,
      "TM": 4646,
      "bert": 4647,
      "ĠQue": 4648,
      "Ġactual": 4649,
      "ĠTuesday": 4650,
      "Ġnotice": 4651,
      "Ġvalid": 4652,
      "Ġclaims": 4653,
      "Ġfootball": 4654,
      "Over": 4655,
      "Ġdefined": 4656,
      "Ġharm": 4657,
      "Ġsector": 4658,
      "ĠThursday": 4659,
      "grad": 4660,
      "irgin": 4661,
      "Ġeye": 4662,
      "IA": 4663,
      "ĠWil": 4664,
      "Ġsupply": 4665,
      "ĠFlorida": 4666,
      "known": 4667,
      "OM": 4668,
      "icago": 4669,
      "Ġspend": 4670,
      "ĠMinister": 4671,
      "ĠData": 4672,
      "Ġlaun": 4673,
      "ĠTom": 4674,
      "lamb": 4675,
      "ervice": 4676,
      "Ġrat": 4677,
      "ivery": 4678,
      "Ġfactors": 4679,
      "Ġappreci": 4680,
      "Ġarchitect": 4681,
      "aming": 4682,
      "Ġjobs": 4683,
      "Ġattend": 4684,
      "Ġplus": 4685,
      "Ġ{\\": 4686,
      "ĠMo": 4687,
      "Ġwindow": 4688,
      "RA": 4689,
      "ĠUN": 4690,
      "Ġappropriate": 4691,
      "Ġhar": 4692,
      "Ġregarding": 4693,
      "ĠAut": 4694,
      "azine": 4695,
      "Ġwat": 4696,
      "Ġdepend": 4697,
      "Ġprices": 4698,
      "Ġprofession": 4699,
      "Ġmix": 4700,
      "Ġreality": 4701,
      "osis": 4702,
      "ĠWhy": 4703,
      "Ġparties": 4704,
      "win": 4705,
      "ĠMad": 4706,
      "Ġagree": 4707,
      "Ġdevices": 4708,
      "cd": 4709,
      "Ġprotection": 4710,
      "emic": 4711,
      "Ġdim": 4712,
      "anta": 4713,
      "ĠTime": 4714,
      "ĠTimes": 4715,
      "ĠCare": 4716,
      "ĠUnion": 4717,
      "sk": 4718,
      "ĠDistrict": 4719,
      "orrow": 4720,
      "Ġlaunch": 4721,
      "Ġshowed": 4722,
      "edia": 4723,
      "usion": 4724,
      "semb": 4725,
      "Ġglass": 4726,
      "Ġloved": 4727,
      "Ġrule": 4728,
      "antic": 4729,
      "Ġgenerally": 4730,
      "Ġkept": 4731,
      "Ġassum": 4732,
      "ĠAv": 4733,
      "lis": 4734,
      "SE": 4735,
      "SP": 4736,
      "ĠLeague": 4737,
      "inct": 4738,
      "Ġtast": 4739,
      "ĠRock": 4740,
      "Ġrecords": 4741,
      "itness": 4742,
      "Ġbecomes": 4743,
      "Ġopened": 4744,
      "empl": 4745,
      "Ġsleep": 4746,
      "Ġtheory": 4747,
      "Comp": 4748,
      "ÑĤÐ¸": 4749,
      "Ġmaster": 4750,
      "ĠUp": 4751,
      "Ġaudience": 4752,
      "Ġcompar": 4753,
      "ĠMuseum": 4754,
      "ĠFree": 4755,
      "ario": 4756,
      "ĠMarket": 4757,
      "Ġtask": 4758,
      "Ġforms": 4759,
      "apers": 4760,
      "Ġessential": 4761,
      "ĠProfess": 4762,
      "Ġrap": 4763,
      "BA": 4764,
      "OP": 4765,
      "ĠBi": 4766,
      "ĠAward": 4767,
      "gl": 4768,
      "Ġpartner": 4769,
      "Ġbrain": 4770,
      "Ġstrength": 4771,
      "Ġexpress": 4772,
      "from": 4773,
      "ĠTwitter": 4774,
      "Ġsources": 4775,
      "ieces": 4776,
      "Ġpreviously": 4777,
      "uit": 4778,
      "ĠWednesday": 4779,
      "Ġcounter": 4780,
      "Ġproperties": 4781,
      "orthern": 4782,
      "Ġdisapp": 4783,
      "Ġsolid": 4784,
      "Ġfaith": 4785,
      "Ġdaughter": 4786,
      "Ġphoto": 4787,
      "Ġdamage": 4788,
      "Ġproposed": 4789,
      "Ġviews": 4790,
      "ĠTop": 4791,
      "ĠPlease": 4792,
      "ĠSk": 4793,
      "Ġsteps": 4794,
      "Ġdistribution": 4795,
      "Ġstatic": 4796,
      "Ġtrial": 4797,
      "clusion": 4798,
      "ilon": 4799,
      "ĠHel": 4800,
      "ĠIsland": 4801,
      "Ġdefinitely": 4802,
      "Ġrequires": 4803,
      "Ġfiles": 4804,
      "ĠAfrican": 4805,
      "Here": 4806,
      "Ġtruly": 4807,
      "Ġpredict": 4808,
      "ena": 4809,
      "asion": 4810,
      "ĠCarol": 4811,
      "Ġrob": 4812,
      "active": 4813,
      "ĠMicro": 4814,
      "ĠWilliam": 4815,
      "Er": 4816,
      "ĠÐ±": 4817,
      "mail": 4818,
      "test": 4819,
      "Ġles": 4820,
      "Ġguide": 4821,
      "Ġpush": 4822,
      "cell": 4823,
      "ĠHill": 4824,
      "entially": 4825,
      "ĠEconom": 4826,
      "Ġprefer": 4827,
      "Ġbiggest": 4828,
      "Ġselected": 4829,
      "ĠHot": 4830,
      "levision": 4831,
      "Ġcalls": 4832,
      "Ġmajority": 4833,
      "unte": 4834,
      "Ġkilled": 4835,
      "ÑĦ": 4836,
      "Ġslight": 4837,
      "Ġvictim": 4838,
      "char": 4839,
      "ĠRobert": 4840,
      "Ġleadership": 4841,
      "Ġpresence": 4842,
      "Ġclosed": 4843,
      "ĠMany": 4844,
      "Ġoffering": 4845,
      "Ġcontains": 4846,
      "Ġoutput": 4847,
      "Ġcris": 4848,
      "Ġscale": 4849,
      "Ġcapacity": 4850,
      "Ġguid": 4851,
      "Ġadvert": 4852,
      "OD": 4853,
      "Ed": 4854,
      "asy": 4855,
      "osure": 4856,
      "Ġupdate": 4857,
      "Ġofficials": 4858,
      "path": 4859,
      "ita": 4860,
      "Ġadvice": 4861,
      "Ġcat": 4862,
      "Ġcontinues": 4863,
      "ĠDesign": 4864,
      "Ġerr": 4865,
      "ĠList": 4866,
      "Ġarray": 4867,
      "ĠParty": 4868,
      "px": 4869,
      "Te": 4870,
      "Ġfunding": 4871,
      "gency": 4872,
      "ĠLand": 4873,
      "itors": 4874,
      "Ġpm": 4875,
      "Ġuseful": 4876,
      "ĠGerman": 4877,
      "Ġmeant": 4878,
      "agram": 4879,
      "ca": 4880,
      "Ġlearned": 4881,
      "eck": 4882,
      "requ": 4883,
      "Go": 4884,
      "estic": 4885,
      "Ġreference": 4886,
      "Ġvacc": 4887,
      "Ġdynam": 4888,
      "../../": 4889,
      "Ð½Ð°": 4890,
      "Ġcatch": 4891,
      "ĠGermany": 4892,
      "Ġdespite": 4893,
      "omet": 4894,
      "Ġrelevant": 4895,
      "ĠWeb": 4896,
      "ipp": 4897,
      "Ġresist": 4898,
      "IF": 4899,
      "T_": 4900,
      "Ġtransform": 4901,
      "atically": 4902,
      "Ġign": 4903,
      "asure": 4904,
      "ĠSum": 4905,
      "Ġstorage": 4906,
      "ĠScott": 4907,
      "perty": 4908,
      "ĠSuper": 4909,
      "look": 4910,
      "More": 4911,
      "Ġseeing": 4912,
      "Ġvs": 4913,
      "anda": 4914,
      "Ġsustain": 4915,
      "Ġphotos": 4916,
      "fit": 4917,
      "ias": 4918,
      "ãģ": 4919,
      "Ġbehavior": 4920,
      "uated": 4921,
      ".[": 4922,
      "Why": 4923,
      "rd": 4924,
      "Ġpros": 4925,
      "Ġcash": 4926,
      "ĠDown": 4927,
      "Ġcolumn": 4928,
      "ĠAcadem": 4929,
      "Ġdeveloping": 4930,
      "mathbf": 4931,
      "Ġoperation": 4932,
      "ĠCentral": 4933,
      "Ġentertain": 4934,
      "ĠMer": 4935,
      "Ġconstruct": 4936,
      "Ġhusband": 4937,
      "Ġflu": 4938,
      "ĠForm": 4939,
      "inger": 4940,
      "Ġdrink": 4941,
      "inding": 4942,
      "nect": 4943,
      "Ġanc": 4944,
      "hand": 4945,
      "\";": 4946,
      "abilities": 4947,
      "Ġaren": 4948,
      "Ġcaused": 4949,
      "ĠCD": 4950,
      "Ġsongs": 4951,
      "Ġposted": 4952,
      "riage": 4953,
      "Ġrow": 4954,
      "Ġpoll": 4955,
      "Ġjourney": 4956,
      "Ġrank": 4957,
      "under": 4958,
      "ĠIns": 4959,
      "ĠTor": 4960,
      "Ġactions": 4961,
      "orter": 4962,
      "Ġraised": 4963,
      "Ġorg": 4964,
      "van": 4965,
      "Ġappears": 4966,
      "ĠâĢ¢": 4967,
      "Of": 4968,
      "ĠFrank": 4969,
      "Ġstress": 4970,
      "yer": 4971,
      "Ġcommand": 4972,
      "Ġnorth": 4973,
      "ĠRussia": 4974,
      "Ġadjust": 4975,
      "Par": 4976,
      "Ġperformed": 4977,
      "These": 4978,
      "const": 4979,
      "anging": 4980,
      "ĠID": 4981,
      "Ġclearly": 4982,
      "Ġitem": 4983,
      "Ġrare": 4984,
      "Ġhelping": 4985,
      "ayer": 4986,
      "TS": 4987,
      "Ġdetermine": 4988,
      "PA": 4989,
      "ĠDiv": 4990,
      "Ġforces": 4991,
      "Ġartists": 4992,
      "pret": 4993,
      "ĠWomen": 4994,
      "ĠLos": 4995,
      "lig": 4996,
      "going": 4997,
      "ĠDet": 4998,
      "Ġweekend": 4999,
      "Ġfollows": 5000,
      "atre": 5001,
      "ĠInternet": 5002,
      "Ã§": 5003,
      "Ġseemed": 5004,
      "Ġconference": 5005,
      "ĠÂ»": 5006,
      "Ġthank": 5007,
      "OW": 5008,
      "Ġda": 5009,
      "Ġfamous": 5010,
      "Ġsto": 5011,
      "Ġprote": 5012,
      "Ġfunctions": 5013,
      "Ġbottom": 5014,
      "Ġfant": 5015,
      "road": 5016,
      "ĠEngine": 5017,
      "Ġearth": 5018,
      "Ġwouldn": 5019,
      "ĠLat": 5020,
      "ilde": 5021,
      "Ġlaws": 5022,
      "Ġexperiences": 5023,
      "which": 5024,
      "eless": 5025,
      "Let": 5026,
      "ĠCommunity": 5027,
      "Ġcommunication": 5028,
      "gment": 5029,
      "ĠJud": 5030,
      "ĠRad": 5031,
      "Ġstandards": 5032,
      "reek": 5033,
      "ala": 5034,
      "zen": 5035,
      "Ġreturned": 5036,
      "Ġmentioned": 5037,
      "Ġheavy": 5038,
      "oving": 5039,
      "enses": 5040,
      "Exception": 5041,
      "Ġcultural": 5042,
      "Ġtesting": 5043,
      "Ġdistance": 5044,
      "orney": 5045,
      "Ġotherwise": 5046,
      "Ġnuc": 5047,
      "icit": 5048,
      "Ġcrim": 5049,
      "Ġjoined": 5050,
      "Ġnom": 5051,
      "Ġspl": 5052,
      "sm": 5053,
      "Ġhealthy": 5054,
      "uled": 5055,
      "BS": 5056,
      "Ġreached": 5057,
      "Pre": 5058,
      "ĠSecret": 5059,
      "ĠOpen": 5060,
      "Ġinfluence": 5061,
      "ĠSil": 5062,
      "Ġhab": 5063,
      "ÐµÑĤ": 5064,
      "ĠHuman": 5065,
      "Ġmanager": 5066,
      "Ġsenior": 5067,
      "function": 5068,
      "Ġmulti": 5069,
      "ĠOh": 5070,
      "Ġscore": 5071,
      "Ġresidents": 5072,
      "abled": 5073,
      "ĠJul": 5074,
      "Ġing": 5075,
      "dule": 5076,
      "Ġsouth": 5077,
      "ĠPeter": 5078,
      "Ġtend": 5079,
      "ĠMedia": 5080,
      "Ġonto": 5081,
      "Ġhomes": 5082,
      "ĠElect": 5083,
      "ĠThomas": 5084,
      "Ġsea": 5085,
      "Ġolder": 5086,
      "ĠAny": 5087,
      "clusive": 5088,
      "ĠKore": 5089,
      "Ġafford": 5090,
      "hi": 5091,
      "Ġmist": 5092,
      "ĠEarth": 5093,
      "inder": 5094,
      "ribute": 5095,
      "ĠGrand": 5096,
      "_m": 5097,
      "Ġprison": 5098,
      "Ġthanks": 5099,
      "Bu": 5100,
      "Ġexperienced": 5101,
      "ĠFig": 5102,
      "Ġamb": 5103,
      ")}": 5104,
      "Ġincred": 5105,
      "Ġgar": 5106,
      "Ġconflic": 5107,
      "Ġenvironmental": 5108,
      "Me": 5109,
      "ffee": 5110,
      "Ġadministration": 5111,
      "ĠTur": 5112,
      "Ġradio": 5113,
      "Ġcompetition": 5114,
      "Ġburn": 5115,
      "Ġfunds": 5116,
      "oken": 5117,
      "Ġeat": 5118,
      "idden": 5119,
      "Ġextremely": 5120,
      "Ġplaced": 5121,
      "Object": 5122,
      "CE": 5123,
      "igration": 5124,
      "nel": 5125,
      "ĊĊĉ": 5126,
      "Ġindex": 5127,
      "Ġarrest": 5128,
      "ented": 5129,
      "ĠChicago": 5130,
      "Ġfinding": 5131,
      "Ġserver": 5132,
      "bour": 5133,
      "Ġutil": 5134,
      "Ġpolicies": 5135,
      "Ġselection": 5136,
      "Ġgeneration": 5137,
      "rig": 5138,
      "ĉĉĉĉ": 5139,
      "Ġmeasures": 5140,
      "sigma": 5141,
      "().": 5142,
      "phone": 5143,
      "FL": 5144,
      "Ġcreative": 5145,
      "Ġsusp": 5146,
      "Ġfan": 5147,
      "ĠNov": 5148,
      "level": 5149,
      "yth": 5150,
      "va": 5151,
      "gor": 5152,
      "hol": 5153,
      "Ġwhom": 5154,
      "adian": 5155,
      "Ġsam": 5156,
      "Ġsomew": 5157,
      "Ġcovered": 5158,
      "Ġtemperature": 5159,
      "osen": 5160,
      "ĠSy": 5161,
      "Ġviolence": 5162,
      "Ð½Ð¾": 5163,
      "ĠSecurity": 5164,
      "Ġhotel": 5165,
      "Ġruns": 5166,
      "Ġdriving": 5167,
      "OC": 5168,
      "Ġcold": 5169,
      "ĠLord": 5170,
      "ĠJesus": 5171,
      "ua": 5172,
      "lem": 5173,
      "Ġwonderful": 5174,
      "Â»": 5175,
      "writ": 5176,
      "Ġarm": 5177,
      "iency": 5178,
      "ĠBrown": 5179,
      "ĠMont": 5180,
      "rt": 5181,
      "Set": 5182,
      "Ġweather": 5183,
      "ensity": 5184,
      "ĠMount": 5185,
      "Ġcrow": 5186,
      "orpor": 5187,
      "Ġcore": 5188,
      "Ġconcent": 5189,
      "));": 5190,
      "oses": 5191,
      "Text": 5192,
      "Ġknows": 5193,
      "Ġnut": 5194,
      "icate": 5195,
      "Ġeasier": 5196,
      "ĠJo": 5197,
      "Ġbrief": 5198,
      "rite": 5199,
      "Ġthousands": 5200,
      "ĠInformation": 5201,
      "Ġsession": 5202,
      "Ġrich": 5203,
      "using": 5204,
      "Ġmental": 5205,
      "Ġinstr": 5206,
      "Ġmonitor": 5207,
      "ĠRussian": 5208,
      "ĠWestern": 5209,
      "js": 5210,
      "ses": 5211,
      "ĠPower": 5212,
      "Ð½Ñĭ": 5213,
      "Ġinternet": 5214,
      "ĠÑĥ": 5215,
      "Ġtit": 5216,
      "Ġseparate": 5217,
      "MA": 5218,
      "Ġappeared": 5219,
      "Form": 5220,
      "host": 5221,
      "Ġvision": 5222,
      "ĠRev": 5223,
      "ĠAlthough": 5224,
      "Ġfinished": 5225,
      "Can": 5226,
      "Ġbreat": 5227,
      "ĠIr": 5228,
      "uries": 5229,
      "Ġbecoming": 5230,
      "Ġsets": 5231,
      "Ġstreet": 5232,
      "elligence": 5233,
      "unately": 5234,
      ",'": 5235,
      "life": 5236,
      "othing": 5237,
      "Ġneighbor": 5238,
      "Ġrise": 5239,
      "lt": 5240,
      "ĠLead": 5241,
      "Ġclasses": 5242,
      "Ġowner": 5243,
      "Ġshowing": 5244,
      "Ġkitchen": 5245,
      "ffect": 5246,
      "ĠTheir": 5247,
      "ĠAnt": 5248,
      "eration": 5249,
      "Ġlock": 5250,
      "Ġadvantage": 5251,
      "Class": 5252,
      "olars": 5253,
      "ilder": 5254,
      "Ġwriter": 5255,
      "igen": 5256,
      "pected": 5257,
      "Ġwww": 5258,
      "Ġpassion": 5259,
      "ĠTechnology": 5260,
      "gers": 5261,
      "Ġpractices": 5262,
      "Rec": 5263,
      "Ġfilms": 5264,
      "abin": 5265,
      "Ġtechnical": 5266,
      "['": 5267,
      "Time": 5268,
      "ĠÂ«": 5269,
      "rc": 5270,
      "Ġdry": 5271,
      "iced": 5272,
      "lies": 5273,
      "Ġapplied": 5274,
      "alled": 5275,
      "inem": 5276,
      "Ġteaching": 5277,
      "Ġoccup": 5278,
      "yan": 5279,
      "Ð»Ð°": 5280,
      "ĠGlobal": 5281,
      "Ġsigned": 5282,
      "Ġexpression": 5283,
      "Ġdiagn": 5284,
      "het": 5285,
      "ĠÃ©": 5286,
      "ĠVirgin": 5287,
      "ĠMass": 5288,
      "Ġinstruct": 5289,
      "hab": 5290,
      "ixt": 5291,
      "Ġdelivery": 5292,
      "Ġended": 5293,
      "Ġfocused": 5294,
      "amework": 5295,
      "Ġdrop": 5296,
      "ĠVis": 5297,
      "Ġcities": 5298,
      "ĠTest": 5299,
      "fficient": 5300,
      "ora": 5301,
      "ĠAmericans": 5302,
      "Ġreligious": 5303,
      "Ġlinks": 5304,
      "Ġbath": 5305,
      "Ġfacilities": 5306,
      "Ġconnected": 5307,
      "Ġ(\\": 5308,
      "Ġsupported": 5309,
      "udd": 5310,
      "Ð¾Ð¹": 5311,
      "Ġtree": 5312,
      "acement": 5313,
      "rene": 5314,
      "ĠIran": 5315,
      "MP": 5316,
      "iat": 5317,
      "Ġoperating": 5318,
      "Ġvisual": 5319,
      "Ġshape": 5320,
      "Ġphil": 5321,
      "ĠEU": 5322,
      "Ġbaby": 5323,
      "Ġwed": 5324,
      "xy": 5325,
      "Ġpool": 5326,
      "SA": 5327,
      "Ġproceed": 5328,
      "Am": 5329,
      "Ġdiscussion": 5330,
      "??": 5331,
      "ĠMel": 5332,
      "oration": 5333,
      "ĠArts": 5334,
      "ĠIT": 5335,
      "acks": 5336,
      "Ġnav": 5337,
      "emporary": 5338,
      "ĠWood": 5339,
      "ĠLike": 5340,
      "ĠVer": 5341,
      "ĠOffic": 5342,
      "fol": 5343,
      "ĠTwo": 5344,
      "Ġcitizens": 5345,
      "Ġsexual": 5346,
      "mathrm": 5347,
      "ĠLake": 5348,
      "Ġretail": 5349,
      "Ð»Ð¸": 5350,
      "ĠCEO": 5351,
      "Ġsmaller": 5352,
      "pan": 5353,
      "Ġminor": 5354,
      "iner": 5355,
      "tes": 5356,
      "Ġfemale": 5357,
      "Ġidentify": 5358,
      "ĠJose": 5359,
      "azz": 5360,
      "Ġcars": 5361,
      "ban": 5362,
      "ĠRichard": 5363,
      "rees": 5364,
      "Ġfailed": 5365,
      "ĠPC": 5366,
      "Ġbattle": 5367,
      "ĠSeries": 5368,
      "Ġwhatever": 5369,
      "night": 5370,
      "Ġhappens": 5371,
      "Ġdefault": 5372,
      "Ġinternal": 5373,
      "ogue": 5374,
      "ione": 5375,
      "friend": 5376,
      "ĠBecause": 5377,
      "Ġexplore": 5378,
      "how": 5379,
      "rum": 5380,
      "illa": 5381,
      "ĠAND": 5382,
      "ĠVict": 5383,
      "ĠAngeles": 5384,
      "Ġlabor": 5385,
      "^{-": 5386,
      "Ġcircum": 5387,
      "alle": 5388,
      "Rep": 5389,
      "ĠLove": 5390,
      "ĠEach": 5391,
      "Ġleaving": 5392,
      "Ġprocesses": 5393,
      "Ġdistrict": 5394,
      "Ġfell": 5395,
      "Ġpieces": 5396,
      "Ġmanufacture": 5397,
      "ĠPet": 5398,
      "Ġrac": 5399,
      "rier": 5400,
      "ĠApple": 5401,
      "press": 5402,
      "ĠDisc": 5403,
      "Ġtraffic": 5404,
      "ipped": 5405,
      "ĠSom": 5406,
      "ĠFamily": 5407,
      "SC": 5408,
      "Home": 5409,
      "Ġnoted": 5410,
      "Ġdecisions": 5411,
      "ĠWater": 5412,
      "Ġship": 5413,
      "ĠWeek": 5414,
      "Ġhaven": 5415,
      "Ġagency": 5416,
      "Ġdepartment": 5417,
      "Ġshop": 5418,
      "owl": 5419,
      "rehens": 5420,
      "sq": 5421,
      ")(": 5422,
      "Ġmut": 5423,
      "while": 5424,
      "trans": 5425,
      "Ġpair": 5426,
      "bo": 5427,
      "Ġfields": 5428,
      "ĠIslam": 5429,
      "Ġremove": 5430,
      "Key": 5431,
      "Ġfactor": 5432,
      "Ġguarant": 5433,
      "ĠShow": 5434,
      "Ġcamera": 5435,
      "ĠReport": 5436,
      "PR": 5437,
      "Ġadvance": 5438,
      "rics": 5439,
      "osoph": 5440,
      "Some": 5441,
      "Americ": 5442,
      "ĠLong": 5443,
      "Ġanimals": 5444,
      "ĠPolicy": 5445,
      "Ġarrang": 5446,
      "Ġprepar": 5447,
      "ideos": 5448,
      "pat": 5449,
      "Ġchair": 5450,
      "Ġadding": 5451,
      "ĠInvest": 5452,
      "iliar": 5453,
      "otic": 5454,
      "ĠParis": 5455,
      "ribe": 5456,
      "ĠBur": 5457,
      "Ġfra": 5458,
      "Ġdedicated": 5459,
      "Ġweap": 5460,
      "+\\": 5461,
      "Ġresearc": 5462,
      "Ġnegative": 5463,
      "icians": 5464,
      "ounder": 5465,
      "Ġes": 5466,
      "Ã¥": 5467,
      "Ġbalance": 5468,
      "ups": 5469,
      "reme": 5470,
      "ĠLouis": 5471,
      "Ġreli": 5472,
      "Ġintroduced": 5473,
      "Ġopinion": 5474,
      "Ġdetermined": 5475,
      "cean": 5476,
      "odies": 5477,
      "oves": 5478,
      "Ġcoord": 5479,
      "iture": 5480,
      "ilding": 5481,
      "Ġinstit": 5482,
      "oung": 5483,
      "link": 5484,
      "Ġdriver": 5485,
      "Ġbrow": 5486,
      "ĠAtl": 5487,
      "ĠMa": 5488,
      "Ġmanaged": 5489,
      "Ġprepared": 5490,
      "Ġguess": 5491,
      "comm": 5492,
      "Ġchanging": 5493,
      "arsh": 5494,
      "related": 5495,
      "Ġborder": 5496,
      "Ġdecades": 5497,
      "DF": 5498,
      "Ġfreedom": 5499,
      "utely": 5500,
      "Ġappeal": 5501,
      "LC": 5502,
      "Ġevening": 5503,
      "ucky": 5504,
      "Ġeventually": 5505,
      "Ġdocuments": 5506,
      "ĠDen": 5507,
      "Ġimportance": 5508,
      "free": 5509,
      "Ġnumerous": 5510,
      "ÐºÐ°": 5511,
      "phi": 5512,
      "Ġassert": 5513,
      "Mar": 5514,
      "Ġthr": 5515,
      "Ġoptim": 5516,
      "ĠAccording": 5517,
      "fra": 5518,
      "Ð¾Ð³Ð¾": 5519,
      "atures": 5520,
      "ĠWho": 5521,
      "ĠMain": 5522,
      "ola": 5523,
      "Ġefficient": 5524,
      "Ġcrisis": 5525,
      "ĠWindows": 5526,
      "ns": 5527,
      "Ġunits": 5528,
      "pack": 5529,
      "ĠTim": 5530,
      "cious": 5531,
      "table": 5532,
      "Ġfashion": 5533,
      "Dr": 5534,
      "iler": 5535,
      "Ġyouth": 5536,
      "Ġconsequ": 5537,
      "inations": 5538,
      "Ġpictures": 5539,
      "Ġvac": 5540,
      "ĠBet": 5541,
      "cho": 5542,
      "Ġbul": 5543,
      "Ġchief": 5544,
      "Def": 5545,
      "Ġmarkets": 5546,
      "Ġguy": 5547,
      "¿½": 5548,
      "ĠHen": 5549,
      "Ġedge": 5550,
      "TH": 5551,
      "Ġaware": 5552,
      "First": 5553,
      "agged": 5554,
      "ĠNor": 5555,
      "ĠCath": 5556,
      "_id": 5557,
      "Ġhandle": 5558,
      "State": 5559,
      "isco": 5560,
      "Ġfab": 5561,
      "amm": 5562,
      "Ġnor": 5563,
      "run": 5564,
      "ĠMedical": 5565,
      "Ġconcerns": 5566,
      "igan": 5567,
      "Ġmetal": 5568,
      "uthors": 5569,
      "Ġeditor": 5570,
      "Ġformat": 5571,
      "Ð²Ð°": 5572,
      "ĠDuring": 5573,
      "ï¿½": 5574,
      "Ġtro": 5575,
      "Ġterror": 5576,
      "Ġmarried": 5577,
      "Ġfinish": 5578,
      "ĠSpecial": 5579,
      "Ġofficer": 5580,
      "Ġconsid": 5581,
      "LA": 5582,
      "*}": 5583,
      "ĠArab": 5584,
      "ĠÎ": 5585,
      "Sub": 5586,
      "Ġlived": 5587,
      "Ġsharing": 5588,
      "Ġspring": 5589,
      "Ġalternative": 5590,
      "Ġmanage": 5591,
      "Ġstated": 5592,
      "Ġsecure": 5593,
      "Ġgirls": 5594,
      "Ġobtained": 5595,
      "ensions": 5596,
      "ĠSpe": 5597,
      "Ġpayment": 5598,
      "ĠOper": 5599,
      "Ġdecre": 5600,
      "ĠTown": 5601,
      "Ste": 5602,
      "ĠBo": 5603,
      "user": 5604,
      "Inst": 5605,
      "Ġclinical": 5606,
      "Ġidentified": 5607,
      "ĠHead": 5608,
      "Ġrandom": 5609,
      "Ġmostly": 5610,
      "ĠTeam": 5611,
      "ĠCup": 5612,
      "ĠMur": 5613,
      "Ġunivers": 5614,
      "Ġlots": 5615,
      "ipping": 5616,
      "oted": 5617,
      "icious": 5618,
      "ani": 5619,
      "bed": 5620,
      "Ġjoint": 5621,
      "Ġcop": 5622,
      "Ġgain": 5623,
      "Ġwaiting": 5624,
      "ĠObama": 5625,
      "ears": 5626,
      "ĠChief": 5627,
      "erate": 5628,
      "index": 5629,
      "gorith": 5630,
      "asks": 5631,
      "Ġarticles": 5632,
      "ĠCentre": 5633,
      "ĠFre": 5634,
      "ĠTO": 5635,
      "ĠFund": 5636,
      "ded": 5637,
      "Ġbeat": 5638,
      "Ġcommitted": 5639,
      "Ġproud": 5640,
      "Int": 5641,
      "sl": 5642,
      "cks": 5643,
      "onom": 5644,
      "Ġice": 5645,
      "can": 5646,
      "Ġbatter": 5647,
      "phas": 5648,
      "ĠStat": 5649,
      "Ġequal": 5650,
      "Ġ(\"": 5651,
      "Ġvolume": 5652,
      "ĠGen": 5653,
      "ĠWhe": 5654,
      "cos": 5655,
      "Ġfurn": 5656,
      "olar": 5657,
      "ker": 5658,
      "Ġwatching": 5659,
      "Fig": 5660,
      "Ġepisode": 5661,
      "poses": 5662,
      "Ġestate": 5663,
      "ĠJim": 5664,
      "However": 5665,
      "Ġfix": 5666,
      "figure": 5667,
      "alian": 5668,
      "Ġsymbol": 5669,
      "Ġrent": 5670,
      "Ġmort": 5671,
      "ĠEp": 5672,
      "Ġinjury": 5673,
      "Ġflex": 5674,
      "ĠMartin": 5675,
      "File": 5676,
      "vec": 5677,
      "Ġvon": 5678,
      "gamma": 5679,
      "Ġcombination": 5680,
      "Ġideal": 5681,
      "Ġhyd": 5682,
      "Ġplants": 5683,
      "Requ": 5684,
      "Ġpor": 5685,
      "Ġmaximum": 5686,
      "ĠNY": 5687,
      "Ġexecutive": 5688,
      "Ġbutton": 5689,
      "Ġheight": 5690,
      "ĠLear": 5691,
      "Comm": 5692,
      "ĠPri": 5693,
      "Ġvolunte": 5694,
      "cles": 5695,
      "Ġlaunched": 5696,
      "Ġphase": 5697,
      "]{": 5698,
      "Ġflo": 5699,
      "ĠÑĤ": 5700,
      "ĠDi": 5701,
      "eech": 5702,
      "Pr": 5703,
      "Ġkeeping": 5704,
      "allery": 5705,
      "Ġcoach": 5706,
      "Ġplays": 5707,
      "ĠPub": 5708,
      "Test": 5709,
      "Ġlabel": 5710,
      "ĠAmazon": 5711,
      "Ġban": 5712,
      "Ġguys": 5713,
      "Ġleads": 5714,
      "Ġmotor": 5715,
      "Ġnotes": 5716,
      "DE": 5717,
      "ĠFort": 5718,
      "ĠOrgan": 5719,
      "ĠIts": 5720,
      "Ġhearing": 5721,
      "Next": 5722,
      "Ġfif": 5723,
      "uster": 5724,
      "urban": 5725,
      "Ġadvanced": 5726,
      "Ġlisten": 5727,
      "Ġ!=": 5728,
      "ĠNav": 5729,
      "Ġ;": 5730,
      "idential": 5731,
      "ĠRE": 5732,
      "pir": 5733,
      "ĠMot": 5734,
      "Us": 5735,
      "ĠOld": 5736,
      "po": 5737,
      "Ġhistorical": 5738,
      "Ġfat": 5739,
      "ĠAsia": 5740,
      "Ġdoubt": 5741,
      "irmed": 5742,
      "ais": 5743,
      "ĠEnter": 5744,
      "Ġris": 5745,
      "oria": 5746,
      "Ġmit": 5747,
      "ĠValley": 5748,
      "Ġstars": 5749,
      "Ġtransl": 5750,
      "Ġinterests": 5751,
      "zy": 5752,
      "angle": 5753,
      "ĠIll": 5754,
      "Ġsurvey": 5755,
      "Ġstarts": 5756,
      "Ġ///": 5757,
      "Ġissued": 5758,
      "Ġrelationships": 5759,
      "^\\": 5760,
      "Ġadvent": 5761,
      "Ġsched": 5762,
      "ĠJoe": 5763,
      "Ġwilling": 5764,
      "that": 5765,
      "':": 5766,
      "Ġidentity": 5767,
      "Su": 5768,
      "Ġinvestigation": 5769,
      "rivate": 5770,
      "Ġpanel": 5771,
      "}{\\": 5772,
      "Ġraise": 5773,
      "Ġexperts": 5774,
      "Ġdefend": 5775,
      "Ġresol": 5776,
      "ĠJohnson": 5777,
      "Ġbrings": 5778,
      "Ġtelevision": 5779,
      "Ġapproximately": 5780,
      "Ġclassic": 5781,
      "ĠRights": 5782,
      "cm": 5783,
      "Ġcrime": 5784,
      "Ġlisted": 5785,
      "Ġrapid": 5786,
      "kins": 5787,
      "inst": 5788,
      "inating": 5789,
      "ship": 5790,
      "EW": 5791,
      "Ġmissing": 5792,
      "stream": 5793,
      "ĠFire": 5794,
      "Ġfuel": 5795,
      "\"><": 5796,
      "Ġexchange": 5797,
      "andemic": 5798,
      "Ġcarried": 5799,
      "']": 5800,
      "times": 5801,
      "ih": 5802,
      "Ġpod": 5803,
      "ĠOnce": 5804,
      "Ġminimum": 5805,
      "$$": 5806,
      "ura": 5807,
      "big": 5808,
      "Car": 5809,
      "Ġshut": 5810,
      "ultural": 5811,
      "olds": 5812,
      "AA": 5813,
      "erg": 5814,
      "Ġrecorded": 5815,
      "ĠDig": 5816,
      "iÃ³n": 5817,
      "rant": 5818,
      "Ġwelcome": 5819,
      "ĠToday": 5820,
      "Ġscript": 5821,
      "gery": 5822,
      "ulty": 5823,
      "fty": 5824,
      "ĠAbout": 5825,
      "ĠAustralian": 5826,
      "Ġdiscover": 5827,
      "Ġpun": 5828,
      "erry": 5829,
      "ĠBack": 5830,
      "olit": 5831,
      "cript": 5832,
      "Ġacademic": 5833,
      "ĠFood": 5834,
      "ocument": 5835,
      "Ġreviews": 5836,
      "aks": 5837,
      "Ð¸ÑĤ": 5838,
      "Ġfacility": 5839,
      "Reg": 5840,
      "Ġcoast": 5841,
      "Ġeg": 5842,
      "ĠThanks": 5843,
      "Ġunless": 5844,
      "Ġandroid": 5845,
      "ui": 5846,
      "Ġpaint": 5847,
      "Ġresource": 5848,
      "Ġtom": 5849,
      "script": 5850,
      "Ġmode": 5851,
      "Ġcoverage": 5852,
      "ansion": 5853,
      "ĠLee": 5854,
      "Ġsounds": 5855,
      "Ġpp": 5856,
      "ĠFederal": 5857,
      "Ġliber": 5858,
      "Ġtele": 5859,
      "ĠGal": 5860,
      "rip": 5861,
      "scape": 5862,
      "ĠCy": 5863,
      "Ġlaug": 5864,
      "Ġforced": 5865,
      "pty": 5866,
      "Ġexplain": 5867,
      "Ġjustice": 5868,
      "Ġresponsibility": 5869,
      "sembly": 5870,
      "ĠStand": 5871,
      "Ġholds": 5872,
      "Ġuniversity": 5873,
      "Ġsport": 5874,
      "beta": 5875,
      "ĠFestival": 5876,
      "Ġwinning": 5877,
      "ĠCorpor": 5878,
      "bsp": 5879,
      "Ġton": 5880,
      "Ġcomponents": 5881,
      "Ġrot": 5882,
      "rical": 5883,
      "Ġdefense": 5884,
      "thlet": 5885,
      "Ġpal": 5886,
      "ĠSand": 5887,
      "ĠDie": 5888,
      "Ġcorporate": 5889,
      "Ġmanner": 5890,
      "Ġhousing": 5891,
      "ĠAdminist": 5892,
      "iples": 5893,
      "dis": 5894,
      "Ġfish": 5895,
      "ĠMexico": 5896,
      "onds": 5897,
      "Ġapparent": 5898,
      "');": 5899,
      "Posted": 5900,
      "Ġkid": 5901,
      "arts": 5902,
      "Ġdress": 5903,
      "bi": 5904,
      "ĠRoyal": 5905,
      "espite": 5906,
      "Ġspending": 5907,
      "Ġwinter": 5908,
      "Ġcalling": 5909,
      "Ġhero": 5910,
      "Ġprocessing": 5911,
      "ĠIndust": 5912,
      "Ġment": 5913,
      "Ġteacher": 5914,
      "ĠProv": 5915,
      "Ġseek": 5916,
      "ĠWall": 5917,
      "lambda": 5918,
      "liament": 5919,
      "Ġspeech": 5920,
      "Ġexcited": 5921,
      "Ġannounce": 5922,
      "Ġdial": 5923,
      "\\\\\\\\\\\\\\\\": 5924,
      "ingu": 5925,
      "Ġpurposes": 5926,
      "ilit": 5927,
      "Ġexercise": 5928,
      "reland": 5929,
      "ĠEnd": 5930,
      "Ġsignificantly": 5931,
      "ĠView": 5932,
      "Ġsand": 5933,
      "());": 5934,
      "Ġbelong": 5935,
      "Ġsample": 5936,
      "Ġlas": 5937,
      "Ġapart": 5938,
      "Ġprotected": 5939,
      "Ġinfrast": 5940,
      "ĠEnergy": 5941,
      "Ġjump": 5942,
      "Ġfailure": 5943,
      "Ġna": 5944,
      "ĠUse": 5945,
      "Ġdoctor": 5946,
      "ĠProt": 5947,
      "Ġcentre": 5948,
      "rho": 5949,
      "lymp": 5950,
      "ĠTH": 5951,
      "Che": 5952,
      "ĠSet": 5953,
      "TR": 5954,
      "Ġpolitics": 5955,
      "ja": 5956,
      "Ġfourth": 5957,
      "ĠCanadian": 5958,
      "Ġinterpret": 5959,
      "achel": 5960,
      "Last": 5961,
      "ba": 5962,
      "========": 5963,
      "Ġwitness": 5964,
      "Ġcraft": 5965,
      "ĠÐ°": 5966,
      "amin": 5967,
      "town": 5968,
      "style": 5969,
      "terest": 5970,
      "ayout": 5971,
      "Ġflat": 5972,
      "iams": 5973,
      "Ġcritic": 5974,
      "Ġlose": 5975,
      "Ġscientific": 5976,
      "Ġcou": 5977,
      "Ġgift": 5978,
      "obe": 5979,
      "ĠDev": 5980,
      "jo": 5981,
      "ĠPan": 5982,
      "apping": 5983,
      "ÐµÐ½Ð¸": 5984,
      "Ġsweet": 5985,
      "UL": 5986,
      "Ġ($": 5987,
      "Ġmovies": 5988,
      "++": 5989,
      "leq": 5990,
      "According": 5991,
      "tau": 5992,
      "Ġcriminal": 5993,
      "Ġ**": 5994,
      "Ġteachers": 5995,
      "Ġfill": 5996,
      "Ġillustr": 5997,
      "ocket": 5998,
      "Ġfixed": 5999,
      "ÐºÐ¸": 6000,
      "ĠTour": 6001,
      "ĠAff": 6002,
      "Ġreb": 6003,
      "otes": 6004,
      "EE": 6005,
      "uations": 6006,
      "ĠPo": 6007,
      "Ġcoffee": 6008,
      "Ġcombined": 6009,
      "Ġauthority": 6010,
      "ĠGeorg": 6011,
      "eller": 6012,
      "rete": 6013,
      "ĠSar": 6014,
      "Ġframe": 6015,
      "Ġcorner": 6016,
      "ogen": 6017,
      "Ġnine": 6018,
      "ĠNetwork": 6019,
      "ushed": 6020,
      "ĠSection": 6021,
      "uke": 6022,
      "Ġreduced": 6023,
      "osit": 6024,
      "size": 6025,
      "Ġconver": 6026,
      "Ġagreed": 6027,
      "Ġalle": 6028,
      "Ġvent": 6029,
      "oston": 6030,
      "Ġbright": 6031,
      "Just": 6032,
      "stein": 6033,
      "Ġrevealed": 6034,
      "Ġherself": 6035,
      "Ġsquare": 6036,
      "Ġcircumst": 6037,
      "othes": 6038,
      "Ġstre": 6039,
      "Ð¾Ñģ": 6040,
      "ĠLab": 6041,
      "ĠJustice": 6042,
      "Ġvehicles": 6043,
      "Ġbuildings": 6044,
      "etime": 6045,
      "Ġleaves": 6046,
      "Ġslightly": 6047,
      "ĠAcademy": 6048,
      "comes": 6049,
      "oti": 6050,
      "Ġdatabase": 6051,
      "Ġconven": 6052,
      "Ġadvoc": 6053,
      "ĠGame": 6054,
      "Ġtechniques": 6055,
      "ĠId": 6056,
      "elines": 6057,
      "ĠJapanese": 6058,
      "content": 6059,
      "ossible": 6060,
      "quad": 6061,
      "position": 6062,
      "ĠIP": 6063,
      "Ġallowing": 6064,
      "ĠBlue": 6065,
      "Ġrain": 6066,
      "Ġdisp": 6067,
      "iments": 6068,
      "Ġforest": 6069,
      "Ġwear": 6070,
      "Act": 6071,
      "Ġdetect": 6072,
      "arp": 6073,
      "ĠAuthor": 6074,
      "nbsp": 6075,
      "Ġ/**": 6076,
      "Ġinstitutions": 6077,
      "Out": 6078,
      "draw": 6079,
      "tenance": 6080,
      "Ġswitch": 6081,
      "coh": 6082,
      "long": 6083,
      "Ġpackage": 6084,
      "Ġcomfortable": 6085,
      "Ġcategory": 6086,
      "door": 6087,
      "ĠReal": 6088,
      "ingly": 6089,
      "post": 6090,
      "Ġofficers": 6091,
      "Ġdebt": 6092,
      "ograp": 6093,
      "Ġshares": 6094,
      "Ġdecide": 6095,
      "Ġhonest": 6096,
      "ĠCast": 6097,
      "ATION": 6098,
      "eah": 6099,
      "Ġrestrict": 6100,
      "Ġaspects": 6101,
      "ĠÐ¡": 6102,
      "ĠPolice": 6103,
      "ĠWay": 6104,
      "Ġdemocr": 6105,
      "Ġobserved": 6106,
      "Ġthoughts": 6107,
      "x_": 6108,
      "Ġlit": 6109,
      "GB": 6110,
      "lication": 6111,
      "anish": 6112,
      "Ġtheme": 6113,
      "ĠLibrary": 6114,
      "ĠCharles": 6115,
      "ket": 6116,
      "Ġ&&": 6117,
      "rec": 6118,
      "$-": 6119,
      "Ġwaste": 6120,
      "Ġrom": 6121,
      "Ġholding": 6122,
      "Ġfamiliar": 6123,
      "ician": 6124,
      "group": 6125,
      "Ġstick": 6126,
      "isters": 6127,
      "Ġtests": 6128,
      "Ġisland": 6129,
      "west": 6130,
      "ĠLast": 6131,
      "Ġbra": 6132,
      "Ġplenty": 6133,
      "lines": 6134,
      "HS": 6135,
      "Ġcards": 6136,
      "Ġregistered": 6137,
      "Ġremoved": 6138,
      "olec": 6139,
      "ĠAdv": 6140,
      "Ġputting": 6141,
      "ĠBas": 6142,
      "Ġspecifically": 6143,
      "Ġweak": 6144,
      "real": 6145,
      ".;": 6146,
      "Ġintended": 6147,
      "ommod": 6148,
      "Ġaffected": 6149,
      "Ġlibrary": 6150,
      "Ġmedium": 6151,
      "Ġfilled": 6152,
      "Ġforget": 6153,
      "ega": 6154,
      "May": 6155,
      "Ġdiet": 6156,
      "rid": 6157,
      "ĠCard": 6158,
      "Error": 6159,
      "ĠColor": 6160,
      "Ġtrees": 6161,
      "yles": 6162,
      "unning": 6163,
      "ĠRoman": 6164,
      "Ġuna": 6165,
      "case": 6166,
      "Ġanimal": 6167,
      "Ġdiscovered": 6168,
      "Ġapproved": 6169,
      "Ġchannel": 6170,
      "Ġobjects": 6171,
      "color": 6172,
      "Ġimpress": 6173,
      "ÐµÐ¼": 6174,
      "FA": 6175,
      "Ġexplained": 6176,
      "Ġrid": 6177,
      "ati": 6178,
      "Ġconclud": 6179,
      "ĠLo": 6180,
      "ployment": 6181,
      "icial": 6182,
      "Ġexamples": 6183,
      "Ġsupposed": 6184,
      "ĠSecond": 6185,
      "Ġsupporting": 6186,
      "Ġasking": 6187,
      "ĠPac": 6188,
      "ĠHospital": 6189,
      "ride": 6190,
      "ĠVirginia": 6191,
      "fortunately": 6192,
      "Ġaccident": 6193,
      "Sec": 6194,
      "Ġregul": 6195,
      "ĠJeff": 6196,
      "Ġrestaurant": 6197,
      "Ġdivid": 6198,
      "Ġfeels": 6199,
      "John": 6200,
      "cknow": 6201,
      "hop": 6202,
      "Ġmechanism": 6203,
      "ivered": 6204,
      "itutional": 6205,
      "Ġur": 6206,
      "Ġperspective": 6207,
      "otal": 6208,
      "Ġnone": 6209,
      "prise": 6210,
      "Ġreturns": 6211,
      "ĠTre": 6212,
      "greg": 6213,
      "ĠIreland": 6214,
      "Ġinfrastructure": 6215,
      "Ġsmooth": 6216,
      "aked": 6217,
      "ĠRo": 6218,
      "ĠLim": 6219,
      "Ġ$(": 6220,
      "Ġdepart": 6221,
      "ĠPolit": 6222,
      "Ġcomponent": 6223,
      "uses": 6224,
      "essions": 6225,
      "Ġemergency": 6226,
      "Ġnuclear": 6227,
      "ĠBoy": 6228,
      "oles": 6229,
      "fast": 6230,
      "iveness": 6231,
      "ĠChampions": 6232,
      "DS": 6233,
      "Ġtells": 6234,
      "ĠMen": 6235,
      "}$.": 6236,
      "ancer": 6237,
      "elled": 6238,
      "Ġbelief": 6239,
      "ishes": 6240,
      "Ġera": 6241,
      "Ġemphas": 6242,
      "Ġserving": 6243,
      "ĠJewish": 6244,
      "Ġtransition": 6245,
      "mat": 6246,
      "ĠBob": 6247,
      "Ġchemical": 6248,
      "ĠJones": 6249,
      "irds": 6250,
      "Ġconcerned": 6251,
      "='": 6252,
      "ĠMiddle": 6253,
      "Ġtechnologies": 6254,
      "Â°": 6255,
      "Ġswe": 6256,
      "See": 6257,
      "Per": 6258,
      "Ġargument": 6259,
      "Ġconversation": 6260,
      "Ġexec": 6261,
      "ctors": 6262,
      "Ġparticipants": 6263,
      "ĠChris": 6264,
      "Ġkill": 6265,
      "Ġindustrial": 6266,
      "Ġschedule": 6267,
      "Ġvideos": 6268,
      "nu": 6269,
      "dden": 6270,
      "}(\\": 6271,
      "ĠConference": 6272,
      "Ġmotiv": 6273,
      "Ġaccompl": 6274,
      "Ġau": 6275,
      "Â®": 6276,
      "Ð°ÑĤ": 6277,
      "}$,": 6278,
      "Ġvirtual": 6279,
      "ĠMaster": 6280,
      "reprene": 6281,
      "mosp": 6282,
      "ye": 6283,
      "Ġrelax": 6284,
      "Ġassistance": 6285,
      "Ġincorpor": 6286,
      "Ġrespectively": 6287,
      "rome": 6288,
      "Please": 6289,
      "Since": 6290,
      "gar": 6291,
      "Ġflight": 6292,
      "Ġvillage": 6293,
      "ĠPenn": 6294,
      "Ġhighlight": 6295,
      "Ġfle": 6296,
      "Ġhyp": 6297,
      "Ġmusical": 6298,
      "ĠHaw": 6299,
      "Ġconducted": 6300,
      "Ġsan": 6301,
      "ĠMike": 6302,
      "ĠMuslim": 6303,
      "Ġagent": 6304,
      "Ġfort": 6305,
      "Ġreaders": 6306,
      "Ġmassive": 6307,
      "Ġking": 6308,
      "Ġreform": 6309,
      "itage": 6310,
      "Inter": 6311,
      "Ġminute": 6312,
      "Ġmir": 6313,
      "option": 6314,
      "Trans": 6315,
      "Ġmotion": 6316,
      "Ġwine": 6317,
      "Ġlocations": 6318,
      "Ġmo": 6319,
      "Ġdetailed": 6320,
      "Att": 6321,
      "ĠExper": 6322,
      "Ġformed": 6323,
      "Ġbringing": 6324,
      "date": 6325,
      "Ġupdated": 6326,
      "Ġexciting": 6327,
      "Ġwealth": 6328,
      "PC": 6329,
      "Ġnarr": 6330,
      "Ġmale": 6331,
      "Ġcarbon": 6332,
      "Ñī": 6333,
      "aven": 6334,
      "Ġmatters": 6335,
      "Ġsympt": 6336,
      "Ġpil": 6337,
      "lar": 6338,
      "Ġsoul": 6339,
      "Ġsnow": 6340,
      "ĠLog": 6341,
      "iana": 6342,
      "ographic": 6343,
      "uable": 6344,
      "arks": 6345,
      "fin": 6346,
      "astern": 6347,
      "BI": 6348,
      "Ġobserv": 6349,
      "partial": 6350,
      "Ġuns": 6351,
      "ĠOnline": 6352,
      "Ġlin": 6353,
      "nic": 6354,
      "Ġabsolutely": 6355,
      "ĠSenate": 6356,
      "Ġcomprehens": 6357,
      "Ġmarriage": 6358,
      "ĠMax": 6359,
      "Ġkm": 6360,
      "Ġsubsc": 6361,
      "Ġ/>": 6362,
      "Ġstanding": 6363,
      "ĠBoth": 6364,
      "kin": 6365,
      "Ġchain": 6366,
      "ifications": 6367,
      "ERS": 6368,
      "antly": 6369,
      "oster": 6370,
      "Ġcharges": 6371,
      "oub": 6372,
      "stra": 6373,
      "(),": 6374,
      "Ġprofessionals": 6375,
      "Ġelim": 6376,
      "ĠEqu": 6377,
      "Ġadministr": 6378,
      "Ġseat": 6379,
      "Ġgreatest": 6380,
      "raq": 6381,
      "Ġcloud": 6382,
      "Ġprofile": 6383,
      "Ġran": 6384,
      "FF": 6385,
      "Ġkick": 6386,
      "ĠArmy": 6387,
      "Ġpromote": 6388,
      "Ġtreated": 6389,
      "stract": 6390,
      "Ġtun": 6391,
      "Ġtypically": 6392,
      "Ġbeauty": 6393,
      "Ġwalking": 6394,
      "Co": 6395,
      "Ġsudden": 6396,
      "Ġpandemic": 6397,
      "Ġshel": 6398,
      "Ġcommitment": 6399,
      "Ġadults": 6400,
      "iano": 6401,
      "ĠAud": 6402,
      "Ġenjoyed": 6403,
      "ĠBeach": 6404,
      "ĠCall": 6405,
      "ĠMicrosoft": 6406,
      "Ġarrived": 6407,
      "Ġtow": 6408,
      "Ġtopic": 6409,
      "Ġdiss": 6410,
      "Ġproof": 6411,
      "Ġholiday": 6412,
      "Ass": 6413,
      "ĠProfessor": 6414,
      "Ġdestroy": 6415,
      "Ġvisitors": 6416,
      "Ġquiet": 6417,
      "Ġgarden": 6418,
      "Ġsac": 6419,
      "Ġdance": 6420,
      "Ã£": 6421,
      "orders": 6422,
      "java": 6423,
      "irty": 6424,
      "rer": 6425,
      "Ġcommission": 6426,
      "Ð°ÑĢ": 6427,
      "infty": 6428,
      "Ġauthorities": 6429,
      "gypt": 6430,
      "Ġenem": 6431,
      "Every": 6432,
      "ĠSecretary": 6433,
      "Ġcreation": 6434,
      "Are": 6435,
      "ading": 6436,
      "Ġyoun": 6437,
      "Ġregional": 6438,
      "ĠStudies": 6439,
      "ĠJon": 6440,
      "ĠCharl": 6441,
      "andon": 6442,
      "Ġsubstant": 6443,
      "ĠHor": 6444,
      "Ġremaining": 6445,
      "space": 6446,
      "Ġrevenue": 6447,
      "Ġresearchers": 6448,
      "mes": 6449,
      "EX": 6450,
      "rav": 6451,
      "lywood": 6452,
      "outs": 6453,
      "RI": 6454,
      "ĠCheck": 6455,
      "omin": 6456,
      "Ġaccounts": 6457,
      "ĠCarolina": 6458,
      "Ġven": 6459,
      "erman": 6460,
      "acle": 6461,
      "pace": 6462,
      "aped": 6463,
      "UM": 6464,
      "ĠWal": 6465,
      "Ġsimpl": 6466,
      "Ġrelatively": 6467,
      "rieved": 6468,
      "areness": 6469,
      "ipal": 6470,
      "Ġseeking": 6471,
      "CL": 6472,
      "ĠStep": 6473,
      "Ġtradition": 6474,
      "Ġcontrast": 6475,
      "eries": 6476,
      "water": 6477,
      "Ġinspired": 6478,
      "length": 6479,
      "Ġwire": 6480,
      "Ġroute": 6481,
      "akistan": 6482,
      "Path": 6483,
      "Ġbegins": 6484,
      "kl": 6485,
      "ĠOlymp": 6486,
      "Ġlos": 6487,
      "Ġcaught": 6488,
      "asp": 6489,
      "Ġadapt": 6490,
      "Ġaccommod": 6491,
      "war": 6492,
      "Ġdraft": 6493,
      "ĠLook": 6494,
      "Ġrenew": 6495,
      "ĠFilm": 6496,
      "Ġwedding": 6497,
      "sum_": 6498,
      "power": 6499,
      "Ġcommittee": 6500,
      "Pe": 6501,
      "ĠChair": 6502,
      "lock": 6503,
      "irms": 6504,
      "Ġflav": 6505,
      "ĠSports": 6506,
      "Ġfundament": 6507,
      "ĠCA": 6508,
      "forcement": 6509,
      "ifts": 6510,
      "Ġsides": 6511,
      "foot": 6512,
      "Ġhun": 6513,
      "EST": 6514,
      "ĠYes": 6515,
      "Ġdiscussed": 6516,
      "NS": 6517,
      "CD": 6518,
      "Ġcauses": 6519,
      "Ġgather": 6520,
      "resents": 6521,
      "Ġrecip": 6522,
      "Ġauthors": 6523,
      "Ġdifferences": 6524,
      "Yes": 6525,
      "};": 6526,
      "Ġcandidate": 6527,
      "ĠJun": 6528,
      "ĠPerson": 6529,
      "El": 6530,
      "ĠEnvironment": 6531,
      "kes": 6532,
      "Image": 6533,
      "spec": 6534,
      "Ġfavour": 6535,
      "Ġprove": 6536,
      "Ġselling": 6537,
      "ĠWrit": 6538,
      "pet": 6539,
      "ĠEll": 6540,
      "Ġgoods": 6541,
      "Event": 6542,
      "Ġbought": 6543,
      "oral": 6544,
      "Ġicon": 6545,
      "Ġresolution": 6546,
      "Ġbag": 6547,
      "Ġdelivered": 6548,
      "ĠWilliams": 6549,
      "Ġrail": 6550,
      "Ġvirus": 6551,
      "Ġhundreds": 6552,
      "Ġdra": 6553,
      "iverse": 6554,
      "ĠMake": 6555,
      "ador": 6556,
      "Ð¾ÑĤ": 6557,
      "ĠProduct": 6558,
      "Ġsolar": 6559,
      "Ġeducational": 6560,
      "Ġsevere": 6561,
      "ĠYoung": 6562,
      "sen": 6563,
      "Ġspons": 6564,
      "Ġposts": 6565,
      "Ġstrategies": 6566,
      "Ġattacks": 6567,
      "Ġpossibly": 6568,
      "encing": 6569,
      "sole": 6570,
      "ĠExt": 6571,
      "Ġsignal": 6572,
      "Ġdomestic": 6573,
      "Ġdistinct": 6574,
      "Ġforg": 6575,
      "Ġreject": 6576,
      "Ġgrew": 6577,
      "osite": 6578,
      "Ġpositions": 6579,
      "anche": 6580,
      "ĠUk": 6581,
      "Ã±": 6582,
      "Well": 6583,
      "Ġdecor": 6584,
      "ĠScot": 6585,
      "Ġinvolve": 6586,
      "eper": 6587,
      "Table": 6588,
      "Ġdollars": 6589,
      "hr": 6590,
      "ĠColl": 6591,
      "ĠMedicine": 6592,
      "ounter": 6593,
      "Ġemployee": 6594,
      "Ġconfidence": 6595,
      "ali": 6596,
      "Ġaid": 6597,
      "ãĥ": 6598,
      "anges": 6599,
      "fil": 6600,
      "Ġdiscl": 6601,
      "Ġiron": 6602,
      "ĠChildren": 6603,
      "legal": 6604,
      "sim": 6605,
      "Ġentirely": 6606,
      "noon": 6607,
      "Ġassets": 6608,
      "Ġje": 6609,
      "Ġdrugs": 6610,
      "Ġloan": 6611,
      "Your": 6612,
      "ĠAwards": 6613,
      "Ġcrew": 6614,
      "Ġadvis": 6615,
      "Ġimproved": 6616,
      "Ġpu": 6617,
      "Ġdescription": 6618,
      "Ġsister": 6619,
      "onic": 6620,
      "ormal": 6621,
      "Ġturns": 6622,
      "Ġedition": 6623,
      "Ġrooms": 6624,
      "Part": 6625,
      "ĠLight": 6626,
      "ĠTrust": 6627,
      "map": 6628,
      "alysis": 6629,
      "Ġseconds": 6630,
      "Ġappearance": 6631,
      "Ġdefinition": 6632,
      "Ġcircumstances": 6633,
      "Then": 6634,
      "Ġthick": 6635,
      "Ġride": 6636,
      "_S": 6637,
      "osc": 6638,
      "php": 6639,
      "ãĤ": 6640,
      "parent": 6641,
      "Ġadop": 6642,
      "rich": 6643,
      "Ġconfirmed": 6644,
      "Mr": 6645,
      "Ġexpensive": 6646,
      "riz": 6647,
      "Ġupper": 6648,
      "ĠBoston": 6649,
      "Ġancient": 6650,
      "ĠItaly": 6651,
      "Ġimplementation": 6652,
      "aylor": 6653,
      "Ġmere": 6654,
      "Ġindeed": 6655,
      "ello": 6656,
      "ĠExecutive": 6657,
      "eqref": 6658,
      "Ġacknow": 6659,
      "law": 6660,
      "ĠCH": 6661,
      "actory": 6662,
      "Ġlayer": 6663,
      "Ġbehavi": 6664,
      "orters": 6665,
      "Context": 6666,
      "Ġconflict": 6667,
      "izer": 6668,
      "uts": 6669,
      "Ġdangerous": 6670,
      "TC": 6671,
      "ĠSpring": 6672,
      "ĠCode": 6673,
      "Ġcompr": 6674,
      "Request": 6675,
      "Ġsubsequ": 6676,
      "Em": 6677,
      "ĠVan": 6678,
      "ĠNig": 6679,
      "About": 6680,
      "Ġliqu": 6681,
      "Ġparameters": 6682,
      "Ġexecut": 6683,
      "Ġsuit": 6684,
      "Ġnative": 6685,
      "Ġchosen": 6686,
      "page": 6687,
      "esome": 6688,
      "Ġperman": 6689,
      "Ġconsumer": 6690,
      "Field": 6691,
      "umer": 6692,
      "ĠThus": 6693,
      "Ġcart": 6694,
      "RC": 6695,
      "Ġagencies": 6696,
      "Ġalgorith": 6697,
      "Ġsitting": 6698,
      "Ã©e": 6699,
      "ĠAndrew": 6700,
      "escription": 6701,
      "Ġbelieved": 6702,
      "''": 6703,
      "Ġsigns": 6704,
      "Ġstopped": 6705,
      "elly": 6706,
      "uan": 6707,
      "Ã£o": 6708,
      "Ġdomain": 6709,
      "Ġguests": 6710,
      "Ġaccepted": 6711,
      "Ġworry": 6712,
      "Ġextended": 6713,
      "ESS": 6714,
      "Ġtherapy": 6715,
      "ĠFrancisco": 6716,
      "ĠWhere": 6717,
      "nam": 6718,
      "Ġphen": 6719,
      "iden": 6720,
      "Ġcooper": 6721,
      "Ġworse": 6722,
      "ĠIraq": 6723,
      "Ġemployment": 6724,
      "Ð¾Ðº": 6725,
      "Gener": 6726,
      "Ġstudio": 6727,
      "Ġcandidates": 6728,
      "Ġsteel": 6729,
      "Ġzero": 6730,
      "Ġenable": 6731,
      "Ġdecade": 6732,
      "Ġast": 6733,
      "Ġpure": 6734,
      "ĠPay": 6735,
      "ao": 6736,
      "Item": 6737,
      "ĠÐ·Ð°": 6738,
      "Ġourselves": 6739,
      "Ġfiled": 6740,
      "Ãł": 6741,
      "bridge": 6742,
      "othe": 6743,
      "Ġrecognized": 6744,
      "ĠOnly": 6745,
      "ĠON": 6746,
      "born": 6747,
      "Ġengineering": 6748,
      "uma": 6749,
      "Ġfee": 6750,
      "ĠGames": 6751,
      "Ġremind": 6752,
      "American": 6753,
      "gent": 6754,
      "Ġveter": 6755,
      "uce": 6756,
      "ĠCatholic": 6757,
      "ĠKen": 6758,
      "Ġconcert": 6759,
      "ĠItalian": 6760,
      "ĠKn": 6761,
      "Ġfigures": 6762,
      "mond": 6763,
      "Ġproperly": 6764,
      "ĠPhys": 6765,
      "non": 6766,
      "Ġnetworks": 6767,
      "Ġyes": 6768,
      "Service": 6769,
      "âĢ²": 6770,
      "Ġinvestors": 6771,
      "ĠÐĴ": 6772,
      "cohol": 6773,
      "Ps": 6774,
      "Ġatmosp": 6775,
      "|\\": 6776,
      "Ġrecon": 6777,
      "Ġneighborhood": 6778,
      "urd": 6779,
      "Ġunf": 6780,
      "Ġcharged": 6781,
      "Ġrepresents": 6782,
      "Ġends": 6783,
      "secut": 6784,
      "then": 6785,
      "uing": 6786,
      "Ġstores": 6787,
      "merce": 6788,
      "uls": 6789,
      "Ġterrit": 6790,
      "iration": 6791,
      "ads": 6792,
      "apes": 6793,
      "Ġnewsp": 6794,
      "Ġalt": 6795,
      "TA": 6796,
      "ĠInn": 6797,
      "Ġspeaking": 6798,
      "Ġfees": 6799,
      "ĠKar": 6800,
      "Ġcourses": 6801,
      "Ġprotein": 6802,
      "input": 6803,
      "Ġshock": 6804,
      "Ġring": 6805,
      "orry": 6806,
      "Ġvul": 6807,
      "Ġscr": 6808,
      "Ġplanned": 6809,
      "Ġconsumers": 6810,
      "ighter": 6811,
      "Ġdram": 6812,
      "ÑĨÐ¸": 6813,
      "struct": 6814,
      "lient": 6815,
      "esterday": 6816,
      "athan": 6817,
      "ums": 6818,
      "Ġconsidering": 6819,
      "Ġinfo": 6820,
      "ĠBritain": 6821,
      "ĠDaniel": 6822,
      "Ġtight": 6823,
      "ĠPass": 6824,
      "ĠCustom": 6825,
      "iform": 6826,
      "Ġdesire": 6827,
      "Ġestimated": 6828,
      "lishing": 6829,
      "Ġrelative": 6830,
      "ether": 6831,
      "Ġbroken": 6832,
      "Ġstatements": 6833,
      "umin": 6834,
      "ersion": 6835,
      "child": 6836,
      "';": 6837,
      "Ġequival": 6838,
      "Ġdefe": 6839,
      "Ġexternal": 6840,
      "ĠAD": 6841,
      "ATE": 6842,
      "ĠDC": 6843,
      "Ġmail": 6844,
      "osa": 6845,
      "Ġteach": 6846,
      "Ġsufficient": 6847,
      "zer": 6848,
      "Ġgender": 6849,
      "Ġtempl": 6850,
      "Ġworldwide": 6851,
      "Ġdiverse": 6852,
      "asters": 6853,
      "Fl": 6854,
      "Ġcloser": 6855,
      "FC": 6856,
      "ircraft": 6857,
      "Ġentered": 6858,
      "ĠRef": 6859,
      "orem": 6860,
      "ptions": 6861,
      "ĠColumb": 6862,
      "acter": 6863,
      "Ġsuggested": 6864,
      "cons": 6865,
      "Ġreceiving": 6866,
      "Ġpractical": 6867,
      "abeth": 6868,
      "Ġped": 6869,
      "Art": 6870,
      "Ġtwice": 6871,
      "ansas": 6872,
      "ĠLuc": 6873,
      "ĠSpanish": 6874,
      "Ø§": 6875,
      "iti": 6876,
      "rog": 6877,
      "ĠJoseph": 6878,
      "Ġabuse": 6879,
      "ĠWalk": 6880,
      "Ġmaintenance": 6881,
      "flow": 6882,
      "ĠNight": 6883,
      "ibilities": 6884,
      "iest": 6885,
      "ruck": 6886,
      "ĠAS": 6887,
      "Ġdelay": 6888,
      "rooms": 6889,
      "Ġdescribe": 6890,
      "Ġpoly": 6891,
      "Ġscholars": 6892,
      "Log": 6893,
      "car": 6894,
      "Any": 6895,
      "Ġmouth": 6896,
      "ĠGar": 6897,
      "Ġstone": 6898,
      "Ġveget": 6899,
      "Ġoccasion": 6900,
      "Ġstret": 6901,
      "Ġplanet": 6902,
      "Ġfighting": 6903,
      "UP": 6904,
      "Ġspoke": 6905,
      "Ġshopping": 6906,
      "ĠHon": 6907,
      "grade": 6908,
      "unc": 6909,
      "TER": 6910,
      "ĠLiber": 6911,
      "ĠKingdom": 6912,
      "ĠFurther": 6913,
      "pass": 6914,
      "osophy": 6915,
      "Ġriver": 6916,
      "okes": 6917,
      "Ġplot": 6918,
      "Ġroof": 6919,
      "uality": 6920,
      "illy": 6921,
      "Ġdebate": 6922,
      "onym": 6923,
      "Ġwest": 6924,
      "ĠDivision": 6925,
      "Ġassessment": 6926,
      "Ġliterature": 6927,
      "tilde": 6928,
      "ĠEst": 6929,
      "Ġarms": 6930,
      "ĠMic": 6931,
      "Ġenhance": 6932,
      "Ġmoments": 6933,
      "rency": 6934,
      "Ġhousehold": 6935,
      "Ġspaces": 6936,
      "Ġpartnership": 6937,
      "Ġorders": 6938,
      "Ġportion": 6939,
      "Equ": 6940,
      "ĠOp": 6941,
      "orough": 6942,
      "ÐµÐ´": 6943,
      "ĠEgypt": 6944,
      "Ġrough": 6945,
      "ras": 6946,
      "Ġhonor": 6947,
      "Ġurban": 6948,
      "opyright": 6949,
      "Ġmuseum": 6950,
      "ĠGra": 6951,
      "Gu": 6952,
      "Ġresulting": 6953,
      "Ġexists": 6954,
      "Hand": 6955,
      "Ge": 6956,
      "ĠJackson": 6957,
      "Ġrecommended": 6958,
      "ĠFar": 6959,
      "Ġtelling": 6960,
      "sem": 6961,
      "Ġbuying": 6962,
      "Ġemotional": 6963,
      "adow": 6964,
      "Ġadult": 6965,
      "ĠTherefore": 6966,
      "obs": 6967,
      "[]": 6968,
      "Ġok": 6969,
      "ĠForce": 6970,
      "ji": 6971,
      "Ġnegoti": 6972,
      "Ġsettings": 6973,
      "Ġroot": 6974,
      "Ġisol": 6975,
      "Ġowned": 6976,
      "Ġlicense": 6977,
      "________": 6978,
      "Ð¼Ð¸": 6979,
      "Ġdepth": 6980,
      "Ġelectronic": 6981,
      "ante": 6982,
      "Ġreporting": 6983,
      "Ġeffectively": 6984,
      "Ġmurder": 6985,
      "Ġbeach": 6986,
      "Ġcro": 6987,
      "Ġassign": 6988,
      "Oh": 6989,
      "Ġrecovery": 6990,
      "ĠOl": 6991,
      "%)": 6992,
      "Ġguard": 6993,
      "Ġoriginally": 6994,
      "Ġinnovative": 6995,
      "Ġfriendly": 6996,
      "razil": 6997,
      "ĠTable": 6998,
      "Ġcycle": 6999,
      "CS": 7000,
      "reens": 7001,
      "Ġpursu": 7002,
      "Ġod": 7003,
      "Ġwidth": 7004,
      "ĠThank": 7005,
      "Ġregions": 7006,
      "rends": 7007,
      "Äį": 7008,
      "Ġalleged": 7009,
      "etry": 7010,
      "ĠÑĩ": 7011,
      "Ġcontemporary": 7012,
      "ĠThrough": 7013,
      "Ġdinner": 7014,
      "/>": 7015,
      "Ġencourage": 7016,
      "Ġfellow": 7017,
      "ogy": 7018,
      "ĠLive": 7019,
      "Ġongoing": 7020,
      "ĠSouthern": 7021,
      "Ġsubmit": 7022,
      "ĠPhot": 7023,
      "Ġlux": 7024,
      "Count": 7025,
      "Ġafternoon": 7026,
      "_P": 7027,
      "bal": 7028,
      "ĠSupreme": 7029,
      "Ġmine": 7030,
      "Ġgenerated": 7031,
      "redit": 7032,
      "Ġ});": 7033,
      "ĠMid": 7034,
      "ĠFed": 7035,
      "Ġacid": 7036,
      "Ġauto": 7037,
      "Ġfeatured": 7038,
      "Ċĉĉĉĉĉ": 7039,
      "ECT": 7040,
      "Ġconsistent": 7041,
      "yers": 7042,
      "Top": 7043,
      "Ġcomprehensive": 7044,
      "Ġaudio": 7045,
      "Source": 7046,
      "Ġingred": 7047,
      "Ġphotograph": 7048,
      "ĠJac": 7049,
      "Ġdepending": 7050,
      "Ġintelligence": 7051,
      "Ġwave": 7052,
      "Ġthread": 7053,
      "Ġgod": 7054,
      "Ġmand": 7055,
      "esponse": 7056,
      "ĠAccess": 7057,
      "Ġexpressed": 7058,
      "Ġdirected": 7059,
      "Ġprovider": 7060,
      "iro": 7061,
      "\").": 7062,
      "Ġhappening": 7063,
      "Ġextensive": 7064,
      "ĠUpd": 7065,
      "ĠCross": 7066,
      "Ġyield": 7067,
      "Ġprogramme": 7068,
      "Ġstorm": 7069,
      "ĠPrem": 7070,
      "Ġconfirm": 7071,
      "Ġvictory": 7072,
      "Ġtips": 7073,
      "Ġrisks": 7074,
      "Ġinnovation": 7075,
      "LS": 7076,
      "Ġhouses": 7077,
      "ync": 7078,
      "ĠÂ·": 7079,
      "pire": 7080,
      "kt": 7081,
      "oding": 7082,
      "Ġtrig": 7083,
      "ĠKim": 7084,
      "oir": 7085,
      "ĠHy": 7086,
      "delta": 7087,
      "Ġchapter": 7088,
      "ĠSpace": 7089,
      "ĠGovern": 7090,
      "Ġforth": 7091,
      "aron": 7092,
      "true": 7093,
      "erves": 7094,
      "inton": 7095,
      "Ġsad": 7096,
      "Ġpregn": 7097,
      "Ġfaster": 7098,
      "rate": 7099,
      "Ġmenu": 7100,
      "ĠLtd": 7101,
      "TV": 7102,
      "Ġdebut": 7103,
      "Ġmillions": 7104,
      "Ġserves": 7105,
      "Ġlegislation": 7106,
      "Ġboost": 7107,
      "Ġreferred": 7108,
      "Ġcheap": 7109,
      "Ġprocedure": 7110,
      "ĠPakistan": 7111,
      "Ġbes": 7112,
      "Ġinterface": 7113,
      "Om": 7114,
      "eting": 7115,
      "Thanks": 7116,
      "ĠÐļ": 7117,
      "ÃŃa": 7118,
      "Ġtough": 7119,
      "elle": 7120,
      "Ġregulations": 7121,
      "Ġfacts": 7122,
      "Ġremark": 7123,
      "Ġincident": 7124,
      "Ġtalent": 7125,
      "las": 7126,
      "Phone": 7127,
      "Ġsymptoms": 7128,
      "ĠMA": 7129,
      "ĠCivil": 7130,
      "Ġvast": 7131,
      "ĠHenry": 7132,
      "Ġguitar": 7133,
      "ĠHand": 7134,
      "ĠÐŁ": 7135,
      "ĊĊĊĊ": 7136,
      "Ġscheme": 7137,
      "Ġmal": 7138,
      "ĠCoast": 7139,
      "Ġregister": 7140,
      "void": 7141,
      "Ġcounty": 7142,
      "Ġfly": 7143,
      "ĠZeal": 7144,
      "ĠLar": 7145,
      "Pub": 7146,
      "Ġplastic": 7147,
      "Ġsuccessfully": 7148,
      "ellect": 7149,
      "Ġjudge": 7150,
      "arian": 7151,
      "Ġsurrounding": 7152,
      "duction": 7153,
      "iki": 7154,
      "Ġcampus": 7155,
      "Ġextent": 7156,
      "Ġtaught": 7157,
      "Ġmanufacturing": 7158,
      "wan": 7159,
      "\"></": 7160,
      "Ġcolors": 7161,
      "star": 7162,
      "Ġarts": 7163,
      "Ġusual": 7164,
      "hus": 7165,
      "ĠSupport": 7166,
      "ĠMcC": 7167,
      "Ġincreases": 7168,
      "Ent": 7169,
      "ko": 7170,
      "Fin": 7171,
      "utch": 7172,
      "Fil": 7173,
      "quare": 7174,
      "Ġcrowd": 7175,
      "Ġinstalled": 7176,
      "ando": 7177,
      "vely": 7178,
      "ira": 7179,
      "ĠNOT": 7180,
      "Ġprepare": 7181,
      "Ġfacing": 7182,
      "Ġroles": 7183,
      "ĠEngineering": 7184,
      "Ġstands": 7185,
      "Ġimagine": 7186,
      "abet": 7187,
      "Ġbusy": 7188,
      "Ġbon": 7189,
      "ÑĢÑĥ": 7190,
      "Ġtotally": 7191,
      "gener": 7192,
      "Ġteen": 7193,
      "inent": 7194,
      "ĠFair": 7195,
      "ĠMichigan": 7196,
      "Ġhelpful": 7197,
      "ifier": 7198,
      "aine": 7199,
      "Ġframework": 7200,
      "Ġevolution": 7201,
      "Ġsplit": 7202,
      "ĠInstead": 7203,
      "Ġrub": 7204,
      "Ġcollaboration": 7205,
      "ĠSciences": 7206,
      "Ġnode": 7207,
      "Ġupdates": 7208,
      "Will": 7209,
      "Ġremote": 7210,
      "Ġnic": 7211,
      "ĠRest": 7212,
      "ĠSaf": 7213,
      "Ġ},": 7214,
      "Ġdefine": 7215,
      "ĠControl": 7216,
      "ito": 7217,
      "ĠSign": 7218,
      "ells": 7219,
      "Info": 7220,
      "ĠPop": 7221,
      "Another": 7222,
      "Ġearned": 7223,
      "ĠSP": 7224,
      "iral": 7225,
      "ĠDigital": 7226,
      "issions": 7227,
      "check": 7228,
      "Ġsurprise": 7229,
      "Ġsupports": 7230,
      "Ġmel": 7231,
      "ĠPacific": 7232,
      "ÑģÑı": 7233,
      "Ġpersons": 7234,
      "ĠRepublican": 7235,
      "Ġfasc": 7236,
      "Ġrealize": 7237,
      "ĠCur": 7238,
      "Ġrelation": 7239,
      "Ġinstrument": 7240,
      "tab": 7241,
      "ĠWatch": 7242,
      "prot": 7243,
      "Ġassume": 7244,
      "Ġreplace": 7245,
      "Ġstructures": 7246,
      "ĠWin": 7247,
      "Ġgrown": 7248,
      "Ġreasonable": 7249,
      "Ġshift": 7250,
      "Ġshooting": 7251,
      "ĊĊĉĉ": 7252,
      "Ġwarn": 7253,
      "ican": 7254,
      "enth": 7255,
      "ĠAgain": 7256,
      "ifies": 7257,
      "Map": 7258,
      "Ġparticipate": 7259,
      "Ġimpossible": 7260,
      "holders": 7261,
      "Ġcompens": 7262,
      "Ġcup": 7263,
      "acts": 7264,
      "ĠCe": 7265,
      "Ġbigger": 7266,
      "âĢĭ": 7267,
      "ruption": 7268,
      "Ġtopics": 7269,
      "ĠZealand": 7270,
      "anger": 7271,
      "ĠHave": 7272,
      "roller": 7273,
      "ela": 7274,
      "lected": 7275,
      "Ġrepair": 7276,
      "Ġtaste": 7277,
      "roph": 7278,
      "Big": 7279,
      "Ġefficiency": 7280,
      "Ġlie": 7281,
      "Ġremained": 7282,
      "Ġintent": 7283,
      "raine": 7284,
      "Ġgro": 7285,
      "Ġsuggests": 7286,
      "ulous": 7287,
      "ilton": 7288,
      "Book": 7289,
      "ĠIII": 7290,
      "ĠOR": 7291,
      "ĠSteve": 7292,
      "Ġplug": 7293,
      "Ġju": 7294,
      "Ġexperiment": 7295,
      "ensus": 7296,
      "mann": 7297,
      "Ġexception": 7298,
      "ima": 7299,
      "ĠPage": 7300,
      "Ġboys": 7301,
      "Ġexpansion": 7302,
      "ĠJr": 7303,
      "ĠGuide": 7304,
      "Ġpossibility": 7305,
      "Net": 7306,
      "summary": 7307,
      "Dis": 7308,
      "Ġdegrees": 7309,
      "Ġmessages": 7310,
      "izabeth": 7311,
      "Ġmixed": 7312,
      "Ñĺ": 7313,
      "proof": 7314,
      "theta": 7315,
      "ashed": 7316,
      "Ġfounded": 7317,
      "ĠLittle": 7318,
      "Ġvary": 7319,
      "Date": 7320,
      "ints": 7321,
      "Ġcolour": 7322,
      "Ġfeedback": 7323,
      "Ġvo": 7324,
      "ĠGirl": 7325,
      "ĠCost": 7326,
      "####": 7327,
      "Ġcovers": 7328,
      "Ġpaying": 7329,
      "enger": 7330,
      "Ġunderst": 7331,
      "Ġbanks": 7332,
      "onto": 7333,
      "Ġanywhere": 7334,
      "ÄĻ": 7335,
      "Char": 7336,
      "inson": 7337,
      "tw": 7338,
      "())": 7339,
      "ĠMov": 7340,
      "Ġjoy": 7341,
      "bro": 7342,
      "Ġbodies": 7343,
      "Ġtrading": 7344,
      "Ġreligion": 7345,
      "ĠCreat": 7346,
      "Ġcolle": 7347,
      "eqn": 7348,
      "aph": 7349,
      "ificate": 7350,
      "Ġworst": 7351,
      "Ġhealthcare": 7352,
      "ĠThose": 7353,
      "ĠBrook": 7354,
      "agues": 7355,
      "Ġexpertise": 7356,
      "Ġvulner": 7357,
      "ĠAndroid": 7358,
      "Ġagric": 7359,
      "LO": 7360,
      "Ġcoal": 7361,
      "endar": 7362,
      "ĠManager": 7363,
      "ĠWat": 7364,
      "Ġevol": 7365,
      "she": 7366,
      "title": 7367,
      "ailed": 7368,
      "Ġhat": 7369,
      "weight": 7370,
      "bra": 7371,
      "ĠHa": 7372,
      "Ã¼r": 7373,
      "utation": 7374,
      "Ġsuc": 7375,
      "cor": 7376,
      "ila": 7377,
      "Ġcabin": 7378,
      "ĠAR": 7379,
      "Ġachieved": 7380,
      "Ġcouncil": 7381,
      "lyn": 7382,
      "Ġtalks": 7383,
      "Ġelig": 7384,
      "ĠCas": 7385,
      "Ġhistoric": 7386,
      "start": 7387,
      "Ġautomatically": 7388,
      "Ġtrouble": 7389,
      "front": 7390,
      "ymbol": 7391,
      "Ġwindows": 7392,
      "anna": 7393,
      "Ġprivacy": 7394,
      "je": 7395,
      "ĠMS": 7396,
      "avirus": 7397,
      "ĠQueen": 7398,
      "ĠKorea": 7399,
      "Ġagents": 7400,
      "vin": 7401,
      "Ġclaimed": 7402,
      "gely": 7403,
      "ĠRom": 7404,
      "Click": 7405,
      "ĠRam": 7406,
      "ĠDub": 7407,
      "Ãº": 7408,
      "Ġfilter": 7409,
      "exp": 7410,
      "ben": 7411,
      "ĠCirc": 7412,
      "Where": 7413,
      "Ġleague": 7414,
      "La": 7415,
      "Ġadvertising": 7416,
      "Ġempty": 7417,
      "Ð¸Ð½": 7418,
      "Ġvaluable": 7419,
      "lights": 7420,
      "Ġpassing": 7421,
      "Ġeating": 7422,
      "_f": 7423,
      "Ġwinner": 7424,
      "Ġpit": 7425,
      "vol": 7426,
      "nab": 7427,
      "core": 7428,
      "Ġcollected": 7429,
      "Ġexistence": 7430,
      "BO": 7431,
      "essed": 7432,
      "version": 7433,
      "ĠPrime": 7434,
      "ĠStart": 7435,
      "ĠNorthern": 7436,
      "oking": 7437,
      "Äħ": 7438,
      "lets": 7439,
      "EG": 7440,
      "ĠFull": 7441,
      "uis": 7442,
      "ĠNote": 7443,
      "Ġsequence": 7444,
      "Ġclosely": 7445,
      "ĠKnow": 7446,
      "open": 7447,
      "cdot": 7448,
      "Ġawareness": 7449,
      "oz": 7450,
      "Ġspin": 7451,
      "\\,": 7452,
      "Ġmeetings": 7453,
      "_j": 7454,
      "Ġbrands": 7455,
      "Ġjava": 7456,
      "profit": 7457,
      "Ġvariable": 7458,
      "Ġunable": 7459,
      "Ġultimately": 7460,
      "Ġflood": 7461,
      "Ġgenerate": 7462,
      "Other": 7463,
      "ĠTem": 7464,
      "teen": 7465,
      "ĠMu": 7466,
      "ĠFour": 7467,
      "Ġmagazine": 7468,
      "ĠTake": 7469,
      "Ġboat": 7470,
      "ilipp": 7471,
      "Ġparking": 7472,
      "Ġcapable": 7473,
      "Bar": 7474,
      "ls": 7475,
      "apped": 7476,
      "Ġfrequently": 7477,
      "Ġentertainment": 7478,
      "ĠSea": 7479,
      "Ġproviders": 7480,
      "Ġsurgery": 7481,
      "Code": 7482,
      "Ġfantastic": 7483,
      "asts": 7484,
      "vi": 7485,
      "][": 7486,
      "ĠAnother": 7487,
      "Ġacts": 7488,
      "Ġtypical": 7489,
      "Ġprocedures": 7490,
      "Ġstood": 7491,
      "Ġeast": 7492,
      "ĠHotel": 7493,
      "Ġwalls": 7494,
      "Ġchoices": 7495,
      "Config": 7496,
      "Ġstrategic": 7497,
      "Ġnurs": 7498,
      "ollowing": 7499,
      "ĠNext": 7500,
      "ĠGeorgia": 7501,
      "Ġtwenty": 7502,
      "Ġincreasingly": 7503,
      "Ġextract": 7504,
      "Ġswim": 7505,
      "Ġfinds": 7506,
      "ĠFind": 7507,
      "uling": 7508,
      "_b": 7509,
      "Ġturning": 7510,
      "ULL": 7511,
      "Ġacting": 7512,
      "aud": 7513,
      "ĠWild": 7514,
      "TO": 7515,
      "Many": 7516,
      "Tube": 7517,
      "Ġincredible": 7518,
      "Ġfruit": 7519,
      "Ġadm": 7520,
      "stone": 7521,
      "ĠDonald": 7522,
      "lik": 7523,
      "Size": 7524,
      "Ġoccurred": 7525,
      "ĠWord": 7526,
      "itled": 7527,
      "``": 7528,
      "Ġfulf": 7529,
      "object": 7530,
      "Ġune": 7531,
      "Ġindepend": 7532,
      "Ġformal": 7533,
      "Ġwidely": 7534,
      "Ġhumans": 7535,
      "_k": 7536,
      "EP": 7537,
      "ĠFinancial": 7538,
      "max": 7539,
      "umes": 7540,
      "ĠIss": 7541,
      "Ġawarded": 7542,
      "Ġfacilit": 7543,
      "Ġhall": 7544,
      "Ġattrib": 7545,
      "Ref": 7546,
      "Ġcompetitive": 7547,
      "scale": 7548,
      "ĠFOR": 7549,
      "Ġpatterns": 7550,
      "Ġdesigns": 7551,
      "Ġsustainable": 7552,
      "omy": 7553,
      "Ġlatter": 7554,
      "ennis": 7555,
      "Ġrecording": 7556,
      "Ġstreets": 7557,
      "ĠSupp": 7558,
      "amber": 7559,
      "Ġupcoming": 7560,
      "ĠClin": 7561,
      "Ġguest": 7562,
      "ĠIrish": 7563,
      "}}\\": 7564,
      "Ġbattery": 7565,
      "iversary": 7566,
      "Ġkinds": 7567,
      "Ġknowing": 7568,
      "Gl": 7569,
      "icken": 7570,
      "adium": 7571,
      "Most": 7572,
      "ulating": 7573,
      "Ġaircraft": 7574,
      "ĠNon": 7575,
      "Ġtail": 7576,
      "Rem": 7577,
      "ampion": 7578,
      "anes": 7579,
      "ãĢ": 7580,
      "ĠRen": 7581,
      "Ġvert": 7582,
      "Ġreaction": 7583,
      "Ġmainly": 7584,
      "ounded": 7585,
      "info": 7586,
      "ĠPoint": 7587,
      "Ġpresentation": 7588,
      "ĠDar": 7589,
      "Ġdesk": 7590,
      "Ġbasket": 7591,
      "}[": 7592,
      "Ġsi": 7593,
      "ĠRight": 7594,
      "you": 7595,
      "Ġmissed": 7596,
      "Ġentreprene": 7597,
      "ici": 7598,
      "RS": 7599,
      "Sm": 7600,
      "TP": 7601,
      "ĠPalest": 7602,
      "Ġtrend": 7603,
      "imental": 7604,
      "Ġcomparison": 7605,
      "Ġlargely": 7606,
      "ĠSus": 7607,
      "Ġdiscount": 7608,
      "Ġlandscape": 7609,
      "Ġconserv": 7610,
      "apore": 7611,
      "unicip": 7612,
      "wa": 7613,
      "Ġessay": 7614,
      "Ġattorney": 7615,
      "ĠField": 7616,
      "%.": 7617,
      "ĠPsych": 7618,
      "ĠLi": 7619,
      "Ġhorse": 7620,
      "Index": 7621,
      "Ð¾Ð±": 7622,
      "Sim": 7623,
      ")$.": 7624,
      "Ġaccurate": 7625,
      "Ġax": 7626,
      "Ġprinciples": 7627,
      "Ġaccord": 7628,
      "ĠTheatre": 7629,
      "lean": 7630,
      "ĠFoot": 7631,
      "DP": 7632,
      "ĠLabor": 7633,
      "ĠCa": 7634,
      "ĠSher": 7635,
      "ĠStory": 7636,
      "Ġuncertain": 7637,
      "ifest": 7638,
      "ĠKh": 7639,
      "Ġpour": 7640,
      "adel": 7641,
      "ĠOhio": 7642,
      "Ġrepresented": 7643,
      "Ġscientists": 7644,
      "ĠAction": 7645,
      "ĠAp": 7646,
      "ĠDisney": 7647,
      "Ġreduction": 7648,
      "ĠDemocratic": 7649,
      "Ġlinked": 7650,
      "Note": 7651,
      "ĠAdministration": 7652,
      "ĠTerm": 7653,
      "Ġrepeated": 7654,
      "Ġsole": 7655,
      "ĠHom": 7656,
      "Ġvital": 7657,
      "Back": 7658,
      "Ġfurniture": 7659,
      "ĠÐ¿ÑĢ": 7660,
      "Ġweapons": 7661,
      "Ġrevolution": 7662,
      "Ġsucceed": 7663,
      "Ġdoors": 7664,
      "Ġanswers": 7665,
      "Ġextension": 7666,
      "bury": 7667,
      "Array": 7668,
      "hire": 7669,
      "ĠTaylor": 7670,
      "Â©": 7671,
      "ĠMult": 7672,
      "athe": 7673,
      "Ġvictims": 7674,
      "Ġathlet": 7675,
      "Ġcos": 7676,
      "VER": 7677,
      "evin": 7678,
      "Ġduty": 7679,
      "AND": 7680,
      "Ġsight": 7681,
      "Ġmedicine": 7682,
      "Ġanx": 7683,
      "ĠSeason": 7684,
      "Ġauthen": 7685,
      "gage": 7686,
      "awa": 7687,
      "Ġsuitable": 7688,
      "enda": 7689,
      "Ġscheduled": 7690,
      "onavirus": 7691,
      "ĠStan": 7692,
      "Jan": 7693,
      "eler": 7694,
      "Ġexcess": 7695,
      "Ġtested": 7696,
      "ĠHard": 7697,
      "anged": 7698,
      "rell": 7699,
      "vy": 7700,
      "Ġletters": 7701,
      "////////": 7702,
      "ĠJersey": 7703,
      "ĠEth": 7704,
      "Ġdynamic": 7705,
      "Ġarchitecture": 7706,
      "Ser": 7707,
      "Ġdiam": 7708,
      "Ġfrag": 7709,
      "Ġalign": 7710,
      "acking": 7711,
      "ÑĹ": 7712,
      "ova": 7713,
      "Ġchallenging": 7714,
      "Ne": 7715,
      "Ġyounger": 7716,
      "oured": 7717,
      "Ġfindings": 7718,
      "ĠBefore": 7719,
      "ĠHun": 7720,
      "Ġtech": 7721,
      "Ġresistance": 7722,
      "raphics": 7723,
      "ĠConf": 7724,
      "Ġprofessor": 7725,
      "ĠBrazil": 7726,
      "Ġplate": 7727,
      "cha": 7728,
      "ĠSon": 7729,
      "Ġentr": 7730,
      "Ġstudied": 7731,
      "inity": 7732,
      "eping": 7733,
      "ĠSpain": 7734,
      "ournament": 7735,
      "ĠPhoto": 7736,
      "ycl": 7737,
      "des": 7738,
      "olean": 7739,
      "ĠTri": 7740,
      "rovers": 7741,
      "Call": 7742,
      "VD": 7743,
      "ĠMatt": 7744,
      "Ġgraduate": 7745,
      "dy": 7746,
      "Ġelected": 7747,
      "Ġprimarily": 7748,
      "Å¡": 7749,
      "Ġnob": 7750,
      "ĠBooks": 7751,
      "EA": 7752,
      "Ġdrivers": 7753,
      "PM": 7754,
      "Ġcerem": 7755,
      "Ġca": 7756,
      "uting": 7757,
      "Also": 7758,
      "Ġordered": 7759,
      "ĠInstagram": 7760,
      "Ġexposure": 7761,
      "tegr": 7762,
      "razy": 7763,
      "ĠKenn": 7764,
      "During": 7765,
      "ĠMill": 7766,
      "Element": 7767,
      "ĠImp": 7768,
      "Ġretire": 7769,
      "Ġtack": 7770,
      "Ġinspect": 7771,
      "Ġdeals": 7772,
      "Ġsin": 7773,
      "ĠRetrieved": 7774,
      "IST": 7775,
      "Ġactor": 7776,
      "Ġcatal": 7777,
      "ĠDaily": 7778,
      "Ġregularly": 7779,
      "Ġcolon": 7780,
      "Ġfo": 7781,
      "Ġperfectly": 7782,
      "image": 7783,
      "Ġdropped": 7784,
      "Pol": 7785,
      "Ġprofit": 7786,
      "ĠBern": 7787,
      "Ġbelieves": 7788,
      "Ġexceed": 7789,
      "Ġwriters": 7790,
      "HO": 7791,
      "Ġprompt": 7792,
      "ni": 7793,
      "Ġattended": 7794,
      "ĠOx": 7795,
      "ĠLin": 7796,
      "Ġvisiting": 7797,
      "rible": 7798,
      "Ġclar": 7799,
      "Ġhabit": 7800,
      "ĠRod": 7801,
      "Med": 7802,
      "quir": 7803,
      "Ġimpressive": 7804,
      "bel": 7805,
      "Message": 7806,
      "Ġmolec": 7807,
      "edu": 7808,
      "Ġ~": 7809,
      "\"\"": 7810,
      "Ġawards": 7811,
      "oval": 7812,
      "Ġpicked": 7813,
      "Ġcorresponding": 7814,
      "aints": 7815,
      "Ġapps": 7816,
      "Ġstruggle": 7817,
      "ĠRay": 7818,
      "Ġpray": 7819,
      "Ġdivision": 7820,
      "Ġnoise": 7821,
      "icted": 7822,
      "appy": 7823,
      "Ġreader": 7824,
      "Although": 7825,
      "Ġrestaurants": 7826,
      "ogether": 7827,
      "thew": 7828,
      "Ġsugar": 7829,
      "User": 7830,
      "ĠTurn": 7831,
      "Ã¡n": 7832,
      "Ġtasks": 7833,
      "****************": 7834,
      "ÑģÑĮ": 7835,
      "ylvan": 7836,
      "Ġlegisl": 7837,
      "Ġexplains": 7838,
      "ĠAssist": 7839,
      "Ġimprovement": 7840,
      "ceived": 7841,
      "Ġtab": 7842,
      "Ġelev": 7843,
      "lib": 7844,
      "Ġrecognition": 7845,
      "Who": 7846,
      "iginal": 7847,
      ">>": 7848,
      "ĠPR": 7849,
      "s_": 7850,
      "config": 7851,
      "sqrt": 7852,
      "Ġsamples": 7853,
      "Ġsky": 7854,
      "Ġinvent": 7855,
      "Ġwearing": 7856,
      "Ġcream": 7857,
      "Ġcontributions": 7858,
      "Check": 7859,
      "Ġrelief": 7860,
      "...\"": 7861,
      "arg": 7862,
      "isa": 7863,
      "owa": 7864,
      "Ġnarrow": 7865,
      "Ġguidance": 7866,
      "Ġsolve": 7867,
      "Ġgrade": 7868,
      "ĠBal": 7869,
      "Ġfeaturing": 7870,
      "Ġtables": 7871,
      "ucks": 7872,
      "Ġengage": 7873,
      "ĠTal": 7874,
      "epsilon": 7875,
      "Rel": 7876,
      "icide": 7877,
      "ĠFun": 7878,
      "Ġtrained": 7879,
      "een": 7880,
      "inois": 7881,
      "bec": 7882,
      "Ġzone": 7883,
      "away": 7884,
      "Ġrealized": 7885,
      "ĠMP": 7886,
      "Ġdelight": 7887,
      "Ġapproval": 7888,
      "Ġrele": 7889,
      "Ġimmediate": 7890,
      "izz": 7891,
      "QL": 7892,
      "oker": 7893,
      "Ġalcohol": 7894,
      "Ġunion": 7895,
      "Dec": 7896,
      "Ġstim": 7897,
      "ALL": 7898,
      "ĠMach": 7899,
      "ĠVideo": 7900,
      "ĠRadio": 7901,
      "Ġsurf": 7902,
      "ĠOrder": 7903,
      "annels": 7904,
      "Ġcontaining": 7905,
      "center": 7906,
      "ĠÑĢÐ°": 7907,
      "IO": 7908,
      "){": 7909,
      "mic": 7910,
      "itals": 7911,
      "ĠMaybe": 7912,
      "oric": 7913,
      "owned": 7914,
      "ĠVill": 7915,
      "Ġdisappoint": 7916,
      "Ġtiss": 7917,
      "Ġneut": 7918,
      "Ġpowers": 7919,
      "itionally": 7920,
      "Ġfabric": 7921,
      "Ġlosing": 7922,
      "Ġcontribute": 7923,
      "Ġpharm": 7924,
      "Cons": 7925,
      "ĠFox": 7926,
      "Ġdiscipl": 7927,
      "ĠÂ©": 7928,
      "ĠExpl": 7929,
      "missions": 7930,
      "Ġinterior": 7931,
      "ĠFred": 7932,
      "ĠThree": 7933,
      "Ġminister": 7934,
      "anguages": 7935,
      "ĠLew": 7936,
      "Ġperforming": 7937,
      "ĠCorporation": 7938,
      "Ġoperate": 7939,
      "Ġsick": 7940,
      "Ġappreciate": 7941,
      "Ġ);": 7942,
      "plete": 7943,
      "Ġcutting": 7944,
      "Ġdispl": 7945,
      "ige": 7946,
      "vare": 7947,
      "Ġfoundation": 7948,
      "Ġalongside": 7949,
      "Model": 7950,
      "Ġfundamental": 7951,
      "Ġcounsel": 7952,
      "Ġtickets": 7953,
      "orph": 7954,
      "hemat": 7955,
      "Ġlies": 7956,
      "Color": 7957,
      "oven": 7958,
      "Ġratio": 7959,
      "Ġinner": 7960,
      "Ġhidden": 7961,
      "len": 7962,
      "awn": 7963,
      "Thank": 7964,
      "Ġsuspect": 7965,
      "ordan": 7966,
      "ĠYet": 7967,
      "Node": 7968,
      "Ġspecified": 7969,
      "Ġpayments": 7970,
      "Ġtruck": 7971,
      "Ġinstallation": 7972,
      "ĠRon": 7973,
      "ĠFac": 7974,
      "news": 7975,
      "Ġlights": 7976,
      "ĠAsian": 7977,
      "emplate": 7978,
      "Ġhyper": 7979,
      "Ġdogs": 7980,
      "alo": 7981,
      "nce": 7982,
      "ista": 7983,
      "ĠSat": 7984,
      "tra": 7985,
      "endment": 7986,
      "MC": 7987,
      "ensed": 7988,
      "Ġaccessible": 7989,
      "Ġwebsites": 7990,
      "rogen": 7991,
      "Ġyesterday": 7992,
      "ĠSystems": 7993,
      "Ġpresc": 7994,
      "Delta": 7995,
      "has": 7996,
      "Ġreplaced": 7997,
      "ĠBon": 7998,
      "Ġlistening": 7999,
      "Ġequivalent": 8000,
      "count": 8001,
      "Ġcapture": 8002,
      "Ġpip": 8003,
      "Ġpara": 8004,
      "Ġplane": 8005,
      "Ġwalked": 8006,
      "Ġsituations": 8007,
      "Manager": 8008,
      "folio": 8009,
      "ĠDate": 8010,
      "Two": 8011,
      "arters": 8012,
      "Ġadds": 8013,
      "ĠMah": 8014,
      "capt": 8015,
      "ĠComput": 8016,
      "Ġpublication": 8017,
      "ĠSanta": 8018,
      "ĠGuard": 8019,
      "estion": 8020,
      "Ġanticip": 8021,
      "ĠBroad": 8022,
      "_name": 8023,
      "ĠOfficer": 8024,
      "Ġcontribution": 8025,
      "Ġengaged": 8026,
      "Ġintegrated": 8027,
      "Ġstake": 8028,
      "earing": 8029,
      "Once": 8030,
      "orne": 8031,
      "Ġpurchased": 8032,
      "Ġbrown": 8033,
      "onder": 8034,
      "ixture": 8035,
      "Ġmountain": 8036,
      "Ġpapers": 8037,
      "df": 8038,
      "ĠUnivers": 8039,
      "ĠFord": 8040,
      "worth": 8041,
      "Ġpulled": 8042,
      "Ġunknown": 8043,
      "Ġmonitoring": 8044,
      "ĠdÃ©": 8045,
      "Ġcontest": 8046,
      "uous": 8047,
      "Ġaffordable": 8048,
      "/*": 8049,
      "Ġpra": 8050,
      "ĠPot": 8051,
      "Upd": 8052,
      "node": 8053,
      "Ġinformed": 8054,
      "ĠKey": 8055,
      "Ġoutdoor": 8056,
      "Today": 8057,
      "ĠSir": 8058,
      "ĠViet": 8059,
      "Off": 8060,
      "ifer": 8061,
      "Ċĉĉĉĉĉĉ": 8062,
      "Ġatmosphere": 8063,
      "ÐµÐ¹": 8064,
      "Ġlunch": 8065,
      "ĠUr": 8066,
      "etch": 8067,
      "ĠRh": 8068,
      "Ġbond": 8069,
      "ÑģÐºÐ¸": 8070,
      "Ġriv": 8071,
      "Ġorganized": 8072,
      "Ġwheel": 8073,
      "Photo": 8074,
      "ĠÐľ": 8075,
      "Ġrecognize": 8076,
      "Ġarrested": 8077,
      "ategory": 8078,
      "ĠConc": 8079,
      "agraph": 8080,
      "ĠUsing": 8081,
      "Ġkeeps": 8082,
      "Ġmeat": 8083,
      "Ġengagement": 8084,
      "Ġoperator": 8085,
      "eld": 8086,
      "ned": 8087,
      "ĠRun": 8088,
      "Ġnearby": 8089,
      "Ġtum": 8090,
      "fa": 8091,
      "burgh": 8092,
      "Ġrural": 8093,
      "ĠKong": 8094,
      "yr": 8095,
      "Ġapproaches": 8096,
      "Ġdiversity": 8097,
      "vas": 8098,
      "ĠTax": 8099,
      "Ġexplan": 8100,
      "Ġpotentially": 8101,
      "Ġmoves": 8102,
      "Ġassociation": 8103,
      "person": 8104,
      "ĠMinistry": 8105,
      "ylvania": 8106,
      "Ġtracks": 8107,
      "ĠGreek": 8108,
      "Ġproposal": 8109,
      "last": 8110,
      "Ġpercentage": 8111,
      "ellectual": 8112,
      "una": 8113,
      "Ġspiritual": 8114,
      "Ġrh": 8115,
      "ĠArea": 8116,
      "ĠNS": 8117,
      "Up": 8118,
      "Ġmob": 8119,
      "Ġcreates": 8120,
      "Ġconstantly": 8121,
      "Ġcrucial": 8122,
      "ership": 8123,
      "ĠEnt": 8124,
      "ĠYouTube": 8125,
      "iac": 8126,
      "Ġexpectations": 8127,
      "Ġundert": 8128,
      "Ġfestival": 8129,
      "ĠSoft": 8130,
      "Spec": 8131,
      "Ġtrail": 8132,
      "ĠColorado": 8133,
      "Ġparameter": 8134,
      "Ġarmy": 8135,
      "Look": 8136,
      "Ġboot": 8137,
      "ĠSong": 8138,
      "Ġappointed": 8139,
      "nie": 8140,
      "CP": 8141,
      "Ġenforcement": 8142,
      "AV": 8143,
      "Ġpainting": 8144,
      "Dav": 8145,
      "ologist": 8146,
      "Ġnecessarily": 8147,
      "ĠPerform": 8148,
      "Ġtrav": 8149,
      "Ġplatforms": 8150,
      "Ġsomewhat": 8151,
      "ĠDun": 8152,
      "ĠCapital": 8153,
      "ÄĽ": 8154,
      "Ġreliable": 8155,
      "Ġbridge": 8156,
      "overty": 8157,
      "ĠLatin": 8158,
      "Ġclimb": 8159,
      "Ġcarefully": 8160,
      "Ġfrequency": 8161,
      "Ġfaces": 8162,
      "ĠLocal": 8163,
      "eding": 8164,
      "result": 8165,
      "icing": 8166,
      "ĠHollywood": 8167,
      "Ġbare": 8168,
      "imer": 8169,
      "Ġmonthly": 8170,
      "Ġdensity": 8171,
      "Ġphenomen": 8172,
      "Ġconstit": 8173,
      "Mark": 8174,
      "Ġvisited": 8175,
      "ĠKent": 8176,
      "Ġliquid": 8177,
      "Ġbear": 8178,
      "Ġnoticed": 8179,
      "Ġtea": 8180,
      "ĠLas": 8181,
      "Ġregistration": 8182,
      "ÂŃ": 8183,
      "ĠAgency": 8184,
      "ĠMrs": 8185,
      "ĠAccount": 8186,
      "udi": 8187,
      "ocated": 8188,
      "Ġprotest": 8189,
      "rison": 8190,
      "Ġinvolving": 8191,
      "ector": 8192,
      "ĠÑģÑĤ": 8193,
      "Ġdates": 8194,
      "Ġobviously": 8195,
      "ghan": 8196,
      "Ġ->": 8197,
      "Ġskill": 8198,
      "Ġslowly": 8199,
      "Ġcommunications": 8200,
      "Ġfaculty": 8201,
      "ĠDoes": 8202,
      "Ġmodule": 8203,
      "Ġhate": 8204,
      "Ġtechnique": 8205,
      "ĠPract": 8206,
      "ĠCook": 8207,
      "block": 8208,
      "Ġbuff": 8209,
      "Ġrepresentation": 8210,
      "Even": 8211,
      ".</": 8212,
      "Ġopposite": 8213,
      "ĠBlog": 8214,
      "ĠNick": 8215,
      "omega": 8216,
      "Ret": 8217,
      "chi": 8218,
      "Ġillness": 8219,
      "ĠAnth": 8220,
      "ouston": 8221,
      "Ġsurprising": 8222,
      "RL": 8223,
      "Ġlimits": 8224,
      "ĠCat": 8225,
      "Ġscope": 8226,
      "Ġoutcomes": 8227,
      "Ġtor": 8228,
      "Ġexclusive": 8229,
      "Ġneither": 8230,
      "psilon": 8231,
      "Ġdealing": 8232,
      "Ġversions": 8233,
      "Ġbroadcast": 8234,
      "Ġrein": 8235,
      "Ġsalt": 8236,
      "ĠCase": 8237,
      "aka": 8238,
      "Ġcelebrate": 8239,
      "mo": 8240,
      "ĠRyan": 8241,
      "Ġillegal": 8242,
      "range": 8243,
      "Ġseriously": 8244,
      "Ġenthus": 8245,
      "expected": 8246,
      "Ġinsert": 8247,
      "ĠMir": 8248,
      "ainer": 8249,
      "Ġadopted": 8250,
      "ĠBul": 8251,
      "ĠMethod": 8252,
      "Ġinjuries": 8253,
      "Ġunderstood": 8254,
      "ĠFarm": 8255,
      "gi": 8256,
      "Ġoutstanding": 8257,
      "Ġtag": 8258,
      "ials": 8259,
      "Ġstrict": 8260,
      "Ġchampions": 8261,
      "claim": 8262,
      "py": 8263,
      "create": 8264,
      "Ð»ÑĮ": 8265,
      "Ġcontrolled": 8266,
      "rat": 8267,
      "Ke": 8268,
      "%,": 8269,
      "Ġnewly": 8270,
      "Ġinvited": 8271,
      "Ġliked": 8272,
      "ĠScotland": 8273,
      "Ġgranted": 8274,
      "ĠCarl": 8275,
      "ĠCommon": 8276,
      "util": 8277,
      "Eng": 8278,
      "Ġpurs": 8279,
      "ĠElizabeth": 8280,
      "ython": 8281,
      "google": 8282,
      "aze": 8283,
      "ĠStaff": 8284,
      "Ġelections": 8285,
      "ĠÑĢ": 8286,
      "Ġtall": 8287,
      "Ġbehalf": 8288,
      "Ġq": 8289,
      "ĠCru": 8290,
      "MM": 8291,
      "pdf": 8292,
      "Ġwal": 8293,
      "ocolate": 8294,
      "Ġpermanent": 8295,
      "Ġmac": 8296,
      "Ġcontinuing": 8297,
      "ĠiPhone": 8298,
      "Ġlaugh": 8299,
      "Ġsurprised": 8300,
      "Conn": 8301,
      "Ġawesome": 8302,
      "Ġtaxes": 8303,
      "Ġalleg": 8304,
      "Ġsilver": 8305,
      "urse": 8306,
      "Ġfairly": 8307,
      "tle": 8308,
      "ĠCountry": 8309,
      "Ġrig": 8310,
      "Start": 8311,
      "ĠSwed": 8312,
      "Ġdepends": 8313,
      "Ġdrawn": 8314,
      "Ġvit": 8315,
      "Ġadventure": 8316,
      "brid": 8317,
      "m_": 8318,
      "Ġexhibition": 8319,
      "rizona": 8320,
      "Ġchart": 8321,
      "base": 8322,
      "Ġscored": 8323,
      "world": 8324,
      "agen": 8325,
      "wind": 8326,
      "iffe": 8327,
      "itud": 8328,
      "aret": 8329,
      "isition": 8330,
      "ĠBang": 8331,
      "OU": 8332,
      "illiant": 8333,
      "à¥": 8334,
      "oga": 8335,
      "Ġjur": 8336,
      "Ġpresents": 8337,
      "aturally": 8338,
      "Ġglad": 8339,
      "Ġcontained": 8340,
      "ĠLind": 8341,
      "init": 8342,
      "Ġheads": 8343,
      "ools": 8344,
      "ĠRoom": 8345,
      "Ġairport": 8346,
      "ĠBible": 8347,
      "Ġabsor": 8348,
      "making": 8349,
      "CR": 8350,
      "Ġresc": 8351,
      "Ġfinance": 8352,
      "efully": 8353,
      "Ġconscious": 8354,
      "ĠAsh": 8355,
      "ĠChem": 8356,
      "Ġconvent": 8357,
      "ĠKit": 8358,
      "fall": 8359,
      "Ġprime": 8360,
      "Ġfirms": 8361,
      "Ġerrors": 8362,
      "Ġfiction": 8363,
      "hetic": 8364,
      "ĠAdam": 8365,
      "Ġcontrols": 8366,
      "eqnarray": 8367,
      "sylvania": 8368,
      "Ġsubmitted": 8369,
      "ĠSuch": 8370,
      "Ġinteraction": 8371,
      "Mon": 8372,
      "lix": 8373,
      "tical": 8374,
      "Ġbrowser": 8375,
      "!!!": 8376,
      "iable": 8377,
      "Ġdriven": 8378,
      "Ġsubjects": 8379,
      "ĠRose": 8380,
      "Ġreward": 8381,
      "Previous": 8382,
      "Ġmarked": 8383,
      "OK": 8384,
      "Ġorganis": 8385,
      "ilst": 8386,
      "Ġrear": 8387,
      "Ġoutcome": 8388,
      "Ġconsequences": 8389,
      "dim": 8390,
      "organ": 8391,
      "Ġec": 8392,
      "ĠAge": 8393,
      "Down": 8394,
      "bet": 8395,
      "Ġpromise": 8396,
      "owing": 8397,
      "Ġrefuge": 8398,
      "wing": 8399,
      "Ġalive": 8400,
      "Ġcontrovers": 8401,
      "ĠSingapore": 8402,
      "ĠAI": 8403,
      "ĠBall": 8404,
      "ĠEastern": 8405,
      "ĠCro": 8406,
      "igrants": 8407,
      "Ġdeaths": 8408,
      "Ġspr": 8409,
      "inking": 8410,
      "Ġprincipal": 8411,
      "ĠWorks": 8412,
      "Ġhell": 8413,
      "AF": 8414,
      "ĠSaint": 8415,
      "ĠClick": 8416,
      "web": 8417,
      "api": 8418,
      "Ġsessions": 8419,
      "ĠHarry": 8420,
      "Ġintroduction": 8421,
      "Ãª": 8422,
      "Ġingredients": 8423,
      "AY": 8424,
      "Ġlinear": 8425,
      "NN": 8426,
      "Ġsuffering": 8427,
      "aire": 8428,
      "Ġlegend": 8429,
      "Ġindicate": 8430,
      "Stud": 8431,
      "Ġextreme": 8432,
      "Ġyards": 8433,
      "Ð»Ñı": 8434,
      "Ġ:=": 8435,
      "His": 8436,
      "Ġterr": 8437,
      "Ġdies": 8438,
      "Ġvisible": 8439,
      "gov": 8440,
      "Ġembr": 8441,
      "aded": 8442,
      "Ġscenes": 8443,
      "ĠDNA": 8444,
      "ĠConnect": 8445,
      "Tags": 8446,
      "/**": 8447,
      "Ġgap": 8448,
      "after": 8449,
      "Ġcategories": 8450,
      "Ġtransportation": 8451,
      "Ġgal": 8452,
      "Ð²Ð¸": 8453,
      "Ġconsists": 8454,
      "ido": 8455,
      "ĠImm": 8456,
      "ĠDavis": 8457,
      "Direct": 8458,
      "Ġdiseases": 8459,
      "uffer": 8460,
      ")=": 8461,
      "xx": 8462,
      ")$,": 8463,
      "Ġmm": 8464,
      "rivacy": 8465,
      "ĠTer": 8466,
      "Ð½Ñı": 8467,
      "Ġlovely": 8468,
      "Ġmanaging": 8469,
      "Ġrose": 8470,
      "include": 8471,
      "ĠLow": 8472,
      "Ġdating": 8473,
      "Ġurg": 8474,
      "iot": 8475,
      "Ġorganic": 8476,
      "Ġwatched": 8477,
      "Vis": 8478,
      "Ġtill": 8479,
      "opher": 8480,
      "raction": 8481,
      "Ġgene": 8482,
      "source": 8483,
      "Work": 8484,
      "Ġoffices": 8485,
      "News": 8486,
      "ĠÐ³Ð¾Ð´": 8487,
      "ĠJenn": 8488,
      "ĠLic": 8489,
      "Ġformation": 8490,
      "Ġsoil": 8491,
      "Ġending": 8492,
      "Ġmilk": 8493,
      "ĠMD": 8494,
      "Ġimproving": 8495,
      "ĠEric": 8496,
      "_N": 8497,
      "Ġages": 8498,
      "Ġhopes": 8499,
      "rary": 8500,
      "har": 8501,
      "ĠModel": 8502,
      "sect": 8503,
      "Ġstrike": 8504,
      "Ġsought": 8505,
      "erning": 8506,
      "Ġdoub": 8507,
      "lang": 8508,
      "riers": 8509,
      "heast": 8510,
      "vo": 8511,
      "anny": 8512,
      "reement": 8513,
      "Ġlect": 8514,
      "pg": 8515,
      "aza": 8516,
      "Ġdiscrim": 8517,
      "Cal": 8518,
      "p_": 8519,
      "ĠWars": 8520,
      "Ġgovernments": 8521,
      "Ġdump": 8522,
      "Ġjoining": 8523,
      "ĠBuilding": 8524,
      "ĠType": 8525,
      "Ġrising": 8526,
      "Ġinitiative": 8527,
      "BN": 8528,
      "ĠIllinois": 8529,
      "ĠCON": 8530,
      "ĠHD": 8531,
      "ĠPen": 8532,
      "Ġcompare": 8533,
      "Ġaffili": 8534,
      "lers": 8535,
      "edge": 8536,
      "Ġtrends": 8537,
      "olid": 8538,
      "ortion": 8539,
      "ĠInf": 8540,
      "Ġcm": 8541,
      "Ġopposition": 8542,
      "Ġprospect": 8543,
      "olis": 8544,
      "Ġbat": 8545,
      "Ġbike": 8546,
      "Ag": 8547,
      "Ġorient": 8548,
      "Ġconsideration": 8549,
      "Ġhits": 8550,
      "ĠPS": 8551,
      "ĠDid": 8552,
      "di": 8553,
      "Ġsheet": 8554,
      "ĠFile": 8555,
      "Ġmatrix": 8556,
      "Ġdestination": 8557,
      "Ġinstructions": 8558,
      "iami": 8559,
      "ĠHong": 8560,
      "Head": 8561,
      "ĠFriend": 8562,
      "esh": 8563,
      "Ġmachines": 8564,
      "ĠReturn": 8565,
      "ĠPhilipp": 8566,
      "ĠStephen": 8567,
      "cap": 8568,
      "ĠTravel": 8569,
      "ĠSn": 8570,
      "yard": 8571,
      "Ġmagic": 8572,
      "Fe": 8573,
      "ĠWilson": 8574,
      "endo": 8575,
      "Point": 8576,
      "Ġhasn": 8577,
      "model": 8578,
      "Ġstrongly": 8579,
      "Ġescape": 8580,
      "ĠAvenue": 8581,
      "ÃŁ": 8582,
      "Ġdining": 8583,
      "ĠEconomic": 8584,
      "ĠAT": 8585,
      "Ġcleaning": 8586,
      "Ġoblig": 8587,
      "ĠStudents": 8588,
      "Ġbranch": 8589,
      "acket": 8590,
      "Ġfraud": 8591,
      "anth": 8592,
      "Ġtalked": 8593,
      "Ġhur": 8594,
      "doi": 8595,
      "orable": 8596,
      "Ġyellow": 8597,
      "Ġguarantee": 8598,
      "Ġgent": 8599,
      "ecess": 8600,
      "ĠStock": 8601,
      "cers": 8602,
      "ami": 8603,
      "Ð¾ÑģÑĤ": 8604,
      "including": 8605,
      "Ġvaccine": 8606,
      "break": 8607,
      "ĠPartners": 8608,
      "ĠToronto": 8609,
      "ĠProm": 8610,
      "Ġpointed": 8611,
      "ĠParliament": 8612,
      "adelph": 8613,
      "Ġapartment": 8614,
      "oln": 8615,
      "onna": 8616,
      "ĠRog": 8617,
      "Ġdans": 8618,
      "Ġconcrete": 8619,
      "Äĥ": 8620,
      "acher": 8621,
      "Ġquery": 8622,
      "])": 8623,
      "ĠLine": 8624,
      "Ġbomb": 8625,
      "Ġhurt": 8626,
      "Ġprotocol": 8627,
      "Ġbroke": 8628,
      "Ġpump": 8629,
      "Ġcompos": 8630,
      "Ġbread": 8631,
      "Ġflag": 8632,
      "Ġcharacteristics": 8633,
      "icity": 8634,
      "letter": 8635,
      "Ã¡s": 8636,
      "ailability": 8637,
      "Ġbasically": 8638,
      "ĠEvent": 8639,
      "ĠExp": 8640,
      "^*": 8641,
      "query": 8642,
      "ĠEmer": 8643,
      "Ġwarrant": 8644,
      "Ġattached": 8645,
      "Ġsinger": 8646,
      "db": 8647,
      "ĠPut": 8648,
      "estyle": 8649,
      "ĠPlus": 8650,
      "ĠModern": 8651,
      "ori": 8652,
      "anwhile": 8653,
      "PL": 8654,
      "Ġindicated": 8655,
      "Ġrequests": 8656,
      "ĠIl": 8657,
      "iously": 8658,
      "Ġstable": 8659,
      "ovation": 8660,
      "Ġapparently": 8661,
      "urities": 8662,
      "Ġinitially": 8663,
      "ðŁ": 8664,
      "Ġsaved": 8665,
      "Ĥ¬": 8666,
      "Ġapplicable": 8667,
      "pool": 8668,
      "rot": 8669,
      "rypt": 8670,
      "Ġconsumption": 8671,
      "Ġuniform": 8672,
      "Ġsolo": 8673,
      "IB": 8674,
      "bell": 8675,
      "Ġthousand": 8676,
      "à¸": 8677,
      "Ġsentence": 8678,
      "Ġtiny": 8679,
      "Ġpermission": 8680,
      "caption": 8681,
      "Ġsees": 8682,
      "ypes": 8683,
      "Jo": 8684,
      "Ġbirthday": 8685,
      "Ġmeasured": 8686,
      "Ġdrama": 8687,
      "anz": 8688,
      "ĠArticle": 8689,
      "Ġstored": 8690,
      "Ġsurve": 8691,
      "Ġgrass": 8692,
      "ĠBox": 8693,
      "Ġstrange": 8694,
      "Ġchose": 8695,
      "abb": 8696,
      "Ġsouthern": 8697,
      "Ġconnections": 8698,
      "Ġfaced": 8699,
      "ĠVeg": 8700,
      "zed": 8701,
      "Ġgiant": 8702,
      "Ġpriority": 8703,
      "_T": 8704,
      "elcome": 8705,
      "ĠDeath": 8706,
      "Ġreact": 8707,
      "Ġreputation": 8708,
      "ĠKat": 8709,
      "textbf": 8710,
      "ĠChange": 8711,
      "alty": 8712,
      "ASS": 8713,
      "itis": 8714,
      "Ġcompliance": 8715,
      "Ġaside": 8716,
      "Ġabandon": 8717,
      "ART": 8718,
      "Ġsomewhere": 8719,
      "Ġadj": 8720,
      "Ġdrawing": 8721,
      "iology": 8722,
      "hist": 8723,
      "ĠBand": 8724,
      "ĠName": 8725,
      "adelphia": 8726,
      "Ġfunny": 8727,
      "isted": 8728,
      "Ã¶r": 8729,
      "Ġevil": 8730,
      "Ġsections": 8731,
      "Ġinject": 8732,
      "Ġ()": 8733,
      "ĠMiller": 8734,
      "Ġreturning": 8735,
      "allel": 8736,
      "pson": 8737,
      "enter": 8738,
      "ĠPrince": 8739,
      "ĠCub": 8740,
      "Ġfunctional": 8741,
      "ĠNations": 8742,
      "Ð¡": 8743,
      "ĠNic": 8744,
      "ĠLink": 8745,
      "ĠCert": 8746,
      "imp": 8747,
      "Ġpersonally": 8748,
      "ĠBad": 8749,
      "mal": 8750,
      "ika": 8751,
      "Ġindustries": 8752,
      "Christ": 8753,
      "acked": 8754,
      "Ġamounts": 8755,
      "whel": 8756,
      "ĠBra": 8757,
      "Ġsoldiers": 8758,
      "vision": 8759,
      "Ġcausing": 8760,
      "}^{\\": 8761,
      "Ġlawyer": 8762,
      "Ġpublis": 8763,
      "Ġproport": 8764,
      "Ġalert": 8765,
      "roduction": 8766,
      "ĠAL": 8767,
      "Ġaccused": 8768,
      "FO": 8769,
      "build": 8770,
      "iser": 8771,
      "Ġproducer": 8772,
      "Ġsrc": 8773,
      "Ġcycl": 8774,
      "ennes": 8775,
      "Ġmyst": 8776,
      "Ġdeploy": 8777,
      "Ġmeal": 8778,
      "HA": 8779,
      "ĠBush": 8780,
      "yo": 8781,
      "ĠVice": 8782,
      "ĠBol": 8783,
      "Ġmatches": 8784,
      "Ġentitled": 8785,
      "varepsilon": 8786,
      "Ġparticipation": 8787,
      "Aut": 8788,
      "ishop": 8789,
      "ĠSS": 8790,
      "otten": 8791,
      "Ġimplemented": 8792,
      "((": 8793,
      "Ġtrib": 8794,
      "End": 8795,
      "\"/>": 8796,
      "Ġvoters": 8797,
      "ĠLA": 8798,
      "Min": 8799,
      "Ġobjective": 8800,
      "pling": 8801,
      "owed": 8802,
      "xi": 8803,
      "ĠHas": 8804,
      "ĠÅ": 8805,
      "Ġà¤": 8806,
      "ĠSC": 8807,
      "Ġvess": 8808,
      "ä¸": 8809,
      "ĠPers": 8810,
      "Ġchannels": 8811,
      "int_": 8812,
      "~~": 8813,
      "Ġlikes": 8814,
      "ÐµÐº": 8815,
      "!--": 8816,
      "Ġestimate": 8817,
      "ĠMagazine": 8818,
      "Ġcarrying": 8819,
      "Ġpremium": 8820,
      "otype": 8821,
      "ĠBell": 8822,
      "Ġpleased": 8823,
      "Ġsecondary": 8824,
      "Ġjun": 8825,
      "Param": 8826,
      "ĠNFL": 8827,
      "Ġraw": 8828,
      "disc": 8829,
      "Ġcriteria": 8830,
      "Ġwra": 8831,
      "ĠWhether": 8832,
      "Ġfeelings": 8833,
      "FI": 8834,
      "ĠLes": 8835,
      "Ġticket": 8836,
      "axy": 8837,
      "ĠRecords": 8838,
      "Hist": 8839,
      "Ġreducing": 8840,
      "ĠForest": 8841,
      "ĠSav": 8842,
      "Ġcasino": 8843,
      "apse": 8844,
      "Ġproducing": 8845,
      "Ġguidelines": 8846,
      "ERE": 8847,
      "Ġtemplate": 8848,
      "}=": 8849,
      "Ġevaluation": 8850,
      "Ġcovering": 8851,
      "Gamma": 8852,
      "first": 8853,
      "Ġtut": 8854,
      "Ġmoral": 8855,
      "reated": 8856,
      "ĠDead": 8857,
      "System": 8858,
      "subsection": 8859,
      "ĠPlace": 8860,
      "ushing": 8861,
      "Ġperformances": 8862,
      "Ġfolks": 8863,
      "aa": 8864,
      "ĠBrian": 8865,
      "Ġdomin": 8866,
      "det": 8867,
      "Ġinspiration": 8868,
      "ĠPennsylvania": 8869,
      "Br": 8870,
      "otted": 8871,
      "Ġappointment": 8872,
      "Ġsending": 8873,
      "nesota": 8874,
      "HT": 8875,
      "Ġtherm": 8876,
      "ĠAfghan": 8877,
      "Ġthorough": 8878,
      "ĠNever": 8879,
      "Ġwrites": 8880,
      "ulpt": 8881,
      "tics": 8882,
      "Ġcrash": 8883,
      "Ġassault": 8884,
      "Ġexposed": 8885,
      "ME": 8886,
      "rows": 8887,
      "Ġnations": 8888,
      "Ġaims": 8889,
      "ĠDO": 8890,
      "ĠFall": 8891,
      "ĠAirport": 8892,
      "Ġextends": 8893,
      "Ġsegment": 8894,
      "Ġfounder": 8895,
      "Ġrecommendations": 8896,
      "Ġdistributed": 8897,
      "Ġhardware": 8898,
      "achelor": 8899,
      "Ġsuddenly": 8900,
      "Ġconfiguration": 8901,
      "ĠColumbia": 8902,
      "etts": 8903,
      "ĠBrad": 8904,
      "ĠGi": 8905,
      "abil": 8906,
      "\"),": 8907,
      "ĠAffairs": 8908,
      "Ġhoping": 8909,
      "Ġkilling": 8910,
      "Ġunus": 8911,
      "inch": 8912,
      "_D": 8913,
      "Ġcourts": 8914,
      "ĠSym": 8915,
      "Ġoccurs": 8916,
      "Ext": 8917,
      "Ġbreath": 8918,
      "Ġdust": 8919,
      "bsite": 8920,
      "ieties": 8921,
      "Client": 8922,
      "ensional": 8923,
      "Ġcookies": 8924,
      "ĠEX": 8925,
      "ĠHo": 8926,
      "dev": 8927,
      "ĠOS": 8928,
      "Ġflowers": 8929,
      "ĠVe": 8930,
      "idi": 8931,
      "Ġproven": 8932,
      "Ġweren": 8933,
      "Ġextend": 8934,
      "irk": 8935,
      "ĠStill": 8936,
      "erd": 8937,
      "aska": 8938,
      "Ġeligible": 8939,
      "iley": 8940,
      "ĠSenior": 8941,
      "erk": 8942,
      "site": 8943,
      "Ġstead": 8944,
      "Ġly": 8945,
      "ĠAnton": 8946,
      "GA": 8947,
      "Ġstations": 8948,
      "Ġsuffered": 8949,
      "Ġdoctors": 8950,
      "Ġconstra": 8951,
      "Ġlessons": 8952,
      "ĠBa": 8953,
      "stal": 8954,
      "Ġdeeply": 8955,
      "Ġdescribes": 8956,
      "ĠRequ": 8957,
      "ĠSite": 8958,
      "Ġthin": 8959,
      "Ġ__": 8960,
      "uties": 8961,
      "Ġbutter": 8962,
      "sex": 8963,
      "...]": 8964,
      "Ġbreaking": 8965,
      "Ġloop": 8966,
      "ĠMs": 8967,
      "ilty": 8968,
      "Ġvariables": 8969,
      "Ġ>>": 8970,
      "boy": 8971,
      "Ã©n": 8972,
      "Ġbathroom": 8973,
      "ĠJews": 8974,
      "ĠCP": 8975,
      "Hel": 8976,
      "Ġdeclared": 8977,
      "ydney": 8978,
      "Ġprovision": 8979,
      "Ġvice": 8980,
      "ĠDam": 8981,
      "ĠWas": 8982,
      "Ġble": 8983,
      "Ġbowl": 8984,
      "rac": 8985,
      "ĠCL": 8986,
      "ĠMember": 8987,
      "ĠHoly": 8988,
      "Pat": 8989,
      "Stream": 8990,
      "dep": 8991,
      "ĠPA": 8992,
      "Ġmembership": 8993,
      "Wind": 8994,
      "Ġrequirement": 8995,
      "Ġinsight": 8996,
      "ML": 8997,
      "ĠUkraine": 8998,
      "Ġbreakfast": 8999,
      "OV": 9000,
      "ĠSearch": 9001,
      "Â·": 9002,
      "ificial": 9003,
      "asant": 9004,
      "Ġinvolves": 9005,
      "ĠGreg": 9006,
      "Ġabsolute": 9007,
      "Ġshipping": 9008,
      "sters": 9009,
      "ĠClinton": 9010,
      "iah": 9011,
      "Ġ(!": 9012,
      "ĠDemocrats": 9013,
      "ĠFigure": 9014,
      "inals": 9015,
      "dec": 9016,
      "Ġphr": 9017,
      "rition": 9018,
      "pton": 9019,
      "ĠEss": 9020,
      "ĠSpirit": 9021,
      "Ġfro": 9022,
      "Ġcolleagues": 9023,
      "aux": 9024,
      "umps": 9025,
      "Ġinfection": 9026,
      "ribed": 9027,
      "Ġelectricity": 9028,
      "Ġacknowled": 9029,
      "Ġanyway": 9030,
      "Ġaccordance": 9031,
      "Ġminim": 9032,
      "Ġconfident": 9033,
      "ĠArizona": 9034,
      "pa": 9035,
      "ĠSummer": 9036,
      "Ġfranch": 9037,
      "Ġcombat": 9038,
      "Ġchat": 9039,
      "ĠWales": 9040,
      "Ġconcerning": 9041,
      "Ġkil": 9042,
      "Ġpitch": 9043,
      "Ġprinciple": 9044,
      "Ġprogramming": 9045,
      "istent": 9046,
      "Ġclothes": 9047,
      "Ġacquired": 9048,
      "ĠCurrent": 9049,
      "Ġattempts": 9050,
      "ĠSafety": 9051,
      "Ġein": 9052,
      "Ġphotograp": 9053,
      "local": 9054,
      "Ġwins": 9055,
      "Ġblocks": 9056,
      "Ġreplacement": 9057,
      "Ġinfect": 9058,
      "Ġhole": 9059,
      "conn": 9060,
      "ĠHouston": 9061,
      "Ġgenu": 9062,
      "Ġdur": 9063,
      "ĠSky": 9064,
      "Ġinstitution": 9065,
      "Ġtrick": 9066,
      "Ġreserved": 9067,
      "ĠCond": 9068,
      "only": 9069,
      "being": 9070,
      "ete": 9071,
      "Ġpermit": 9072,
      "Ġseats": 9073,
      "Ġwarning": 9074,
      "Author": 9075,
      "button": 9076,
      "abs": 9077,
      "Ġcapabilities": 9078,
      "Ġnormally": 9079,
      "Ġfoods": 9080,
      "ILL": 9081,
      "Ġnewspaper": 9082,
      "Ġdismiss": 9083,
      "ĠFuture": 9084,
      "ugs": 9085,
      "ailing": 9086,
      "Ġluxury": 9087,
      "ĠED": 9088,
      "Before": 9089,
      "Ġfu": 9090,
      "low": 9091,
      "rated": 9092,
      "rightarrow": 9093,
      "Ġnarrative": 9094,
      "Ġsupplies": 9095,
      "omic": 9096,
      "Ġproved": 9097,
      "ĠSem": 9098,
      "Ġimper": 9099,
      "etary": 9100,
      "inator": 9101,
      "Method": 9102,
      "ĠVen": 9103,
      "Ġregime": 9104,
      "ĠIslamic": 9105,
      "Ġprohib": 9106,
      "Group": 9107,
      "Box": 9108,
      "ĠÐĲ": 9109,
      "Ġbench": 9110,
      "ĠBat": 9111,
      "ĠDark": 9112,
      "ĠTrade": 9113,
      "Ġmarks": 9114,
      "ĠOs": 9115,
      "Ġocean": 9116,
      "olly": 9117,
      "anted": 9118,
      "apache": 9119,
      "Ġconclusion": 9120,
      "Ġrecipe": 9121,
      "inition": 9122,
      "igious": 9123,
      "ĠRoll": 9124,
      "ĠDoug": 9125,
      "zing": 9126,
      "Ġweekly": 9127,
      "aintiff": 9128,
      "Ġsmile": 9129,
      "aste": 9130,
      "Ġrepresentative": 9131,
      "Ġlanguages": 9132,
      "_M": 9133,
      "ĠUt": 9134,
      "Ġtransmission": 9135,
      "Ġnorthern": 9136,
      "ĠBase": 9137,
      "Ġarguments": 9138,
      "usal": 9139,
      "ĠRome": 9140,
      "ppers": 9141,
      "Ġbedroom": 9142,
      "ĠJean": 9143,
      "Ġqualified": 9144,
      "Ġvoc": 9145,
      "Ġchildhood": 9146,
      "Ġjew": 9147,
      "Ġhoriz": 9148,
      "doc": 9149,
      "Ġmemories": 9150,
      "inar": 9151,
      "Ġtitles": 9152,
      "Ġpul": 9153,
      "makers": 9154,
      "ĠBerlin": 9155,
      "ovid": 9156,
      "ĠSmall": 9157,
      "ĠMap": 9158,
      "Ġseasons": 9159,
      "don": 9160,
      "Ġdistingu": 9161,
      "uv": 9162,
      "Ġintegration": 9163,
      "Ġwestern": 9164,
      "ĠPrinc": 9165,
      "wid": 9166,
      "Ġsup": 9167,
      "Ġexplo": 9168,
      "agan": 9169,
      "Ġconsent": 9170,
      "rangle": 9171,
      "rolled": 9172,
      "ĠStation": 9173,
      "Ġbehaviour": 9174,
      "Ġwet": 9175,
      "Ġfifth": 9176,
      "holder": 9177,
      "ĠSep": 9178,
      "Ġloves": 9179,
      "Ġresponses": 9180,
      "itarian": 9181,
      "roke": 9182,
      "Ġvel": 9183,
      "achus": 9184,
      "Ġbrilliant": 9185,
      "ĠHeart": 9186,
      "Ġbeer": 9187,
      "strong": 9188,
      "Ġcommonly": 9189,
      "aping": 9190,
      "isd": 9191,
      "Writ": 9192,
      "Ġforever": 9193,
      "c_": 9194,
      "Ġresidential": 9195,
      "chers": 9196,
      "Child": 9197,
      "Ġactors": 9198,
      "anchester": 9199,
      "_C": 9200,
      "Ñĳ": 9201,
      "ospitals": 9202,
      "gle": 9203,
      "oked": 9204,
      "igate": 9205,
      "Prov": 9206,
      "ĠTreat": 9207,
      "Ġenemy": 9208,
      "--------------------------------": 9209,
      "ĠRos": 9210,
      "KE": 9211,
      "Under": 9212,
      "People": 9213,
      "Ġans": 9214,
      "ocial": 9215,
      "oly": 9216,
      "ĠCancer": 9217,
      "Ġinjured": 9218,
      "orical": 9219,
      "Ġfavourite": 9220,
      "ĠTech": 9221,
      "Ġpersonnel": 9222,
      "ĠPack": 9223,
      "eman": 9224,
      "ĠDE": 9225,
      "isher": 9226,
      "obby": 9227,
      "ĠContact": 9228,
      "ĠKevin": 9229,
      "ĠIde": 9230,
      "ĠStudy": 9231,
      "ĠCS": 9232,
      "ĠÐ»": 9233,
      "enders": 9234,
      "Ġentity": 9235,
      "Figure": 9236,
      "UE": 9237,
      "Ġgolf": 9238,
      "Ġeveryday": 9239,
      "Ġ-->": 9240,
      "Ġoccas": 9241,
      "ĠOxford": 9242,
      "Ð¾Ð·": 9243,
      "main": 9244,
      "ĠLewis": 9245,
      "Ġstretch": 9246,
      "Ġrestrictions": 9247,
      "Ġstd": 9248,
      "Ġflash": 9249,
      "ĠChapter": 9250,
      "Ġcontinuous": 9251,
      "Ġblind": 9252,
      "owers": 9253,
      "ĠMarketing": 9254,
      "Ġlaid": 9255,
      "Best": 9256,
      "ĠDespite": 9257,
      "Ġdesired": 9258,
      "Ġrefe": 9259,
      "amps": 9260,
      "Ġrecover": 9261,
      "names": 9262,
      "Ð´Ð°": 9263,
      "Ġstages": 9264,
      "Ġshouldn": 9265,
      "ulum": 9266,
      "Ġtomorrow": 9267,
      "rection": 9268,
      "itting": 9269,
      "ĠCulture": 9270,
      "android": 9271,
      "Ġregardless": 9272,
      "ĠProcess": 9273,
      "search": 9274,
      "agger": 9275,
      "Ġsizes": 9276,
      "ĠText": 9277,
      "aga": 9278,
      "Ġdish": 9279,
      "Ġinteract": 9280,
      "uns": 9281,
      "Ġresid": 9282,
      "Ġbreast": 9283,
      "ĠNAS": 9284,
      "ĠHop": 9285,
      "ĠJordan": 9286,
      "png": 9287,
      "ders": 9288,
      "Ġele": 9289,
      "Ġvend": 9290,
      "incoln": 9291,
      "ĠDer": 9292,
      "Ġelectron": 9293,
      "Ġodd": 9294,
      "ĠJam": 9295,
      "Ġdevelopers": 9296,
      "ĠDom": 9297,
      "allas": 9298,
      "David": 9299,
      "ĠGro": 9300,
      "eli": 9301,
      "ÐŁ": 9302,
      "ishment": 9303,
      "iger": 9304,
      "ĠBru": 9305,
      "ĠAC": 9306,
      "Ġlighting": 9307,
      "rox": 9308,
      "Ġsacr": 9309,
      "ĠSarah": 9310,
      "ĠGolden": 9311,
      "Ġexpenses": 9312,
      "Ġphilosophy": 9313,
      "ĠPu": 9314,
      "Ġecho": 9315,
      "pled": 9316,
      "Ġtargets": 9317,
      "Ġcooking": 9318,
      "ĠBBC": 9319,
      "ĠForeign": 9320,
      "Ġrapidly": 9321,
      "Ġprovisions": 9322,
      "Ġpeak": 9323,
      "ĠHay": 9324,
      "Ġgained": 9325,
      "Ġconvenient": 9326,
      "ĠSche": 9327,
      "Ġrating": 9328,
      "Ġhang": 9329,
      "Property": 9330,
      "ĠLLC": 9331,
      "ĠContin": 9332,
      "Ġpilot": 9333,
      "words": 9334,
      "Ġtank": 9335,
      "ĠPRO": 9336,
      "Ġmerely": 9337,
      "ĠEdward": 9338,
      "Ġmining": 9339,
      "Ġemissions": 9340,
      "ĠResources": 9341,
      "BL": 9342,
      "Ġintroduce": 9343,
      "Ġopens": 9344,
      "itzer": 9345,
      "Ġfault": 9346,
      "Each": 9347,
      "ĠRa": 9348,
      "ardens": 9349,
      "high": 9350,
      "achusetts": 9351,
      "ĠDream": 9352,
      "Ġcenters": 9353,
      "ĠAli": 9354,
      "Ġcrazy": 9355,
      "Ġemployed": 9356,
      "YP": 9357,
      "odge": 9358,
      "Ġoverwhel": 9359,
      "gt": 9360,
      "Ġluck": 9361,
      "amer": 9362,
      "ockey": 9363,
      "onsin": 9364,
      "ÐµÑģÑĤ": 9365,
      "gressive": 9366,
      "MT": 9367,
      "Ġbatt": 9368,
      "Ġvector": 9369,
      "Ġcable": 9370,
      "thes": 9371,
      "Ġassigned": 9372,
      "ĠTurkey": 9373,
[...]
